{
  "version": "1.0",
  "truncation": null,
  "padding": null,
  "added_tokens": [
    {
      "id": 0,
      "content": "<pad>",
      "single_word": false,
      "lstrip": false,
      "rstrip": false,
      "normalized": false,
      "special": true
    },
    {
      "id": 1,
      "content": "<bos>",
      "single_word": false,
      "lstrip": false,
      "rstrip": false,
      "normalized": false,
      "special": true
    },
    {
      "id": 2,
      "content": "<eos>",
      "single_word": false,
      "lstrip": false,
      "rstrip": false,
      "normalized": false,
      "special": true
    },
    {
      "id": 3,
      "content": "<schema>",
      "single_word": false,
      "lstrip": false,
      "rstrip": false,
      "normalized": false,
      "special": true
    },
    {
      "id": 4,
      "content": "</schema>",
      "single_word": false,
      "lstrip": false,
      "rstrip": false,
      "normalized": false,
      "special": true
    },
    {
      "id": 5,
      "content": "<question>",
      "single_word": false,
      "lstrip": false,
      "rstrip": false,
      "normalized": false,
      "special": true
    },
    {
      "id": 6,
      "content": "</question>",
      "single_word": false,
      "lstrip": false,
      "rstrip": false,
      "normalized": false,
      "special": true
    },
    {
      "id": 7,
      "content": "<sql>",
      "single_word": false,
      "lstrip": false,
      "rstrip": false,
      "normalized": false,
      "special": true
    },
    {
      "id": 8,
      "content": "</sql>",
      "single_word": false,
      "lstrip": false,
      "rstrip": false,
      "normalized": false,
      "special": true
    }
  ],
  "normalizer": null,
  "pre_tokenizer": {
    "type": "ByteLevel",
    "add_prefix_space": false,
    "trim_offsets": true,
    "use_regex": true
  },
  "post_processor": null,
  "decoder": {
    "type": "ByteLevel",
    "add_prefix_space": true,
    "trim_offsets": true,
    "use_regex": true
  },
  "model": {
    "type": "BPE",
    "dropout": null,
    "unk_token": null,
    "continuing_subword_prefix": null,
    "end_of_word_suffix": null,
    "fuse_unk": false,
    "byte_fallback": false,
    "ignore_merges": false,
    "vocab": {
      "<pad>": 0,
      "<bos>": 1,
      "<eos>": 2,
      "<schema>": 3,
      "</schema>": 4,
      "<question>": 5,
      "</question>": 6,
      "<sql>": 7,
      "</sql>": 8,
      "!": 9,
      "\"": 10,
      "#": 11,
      "$": 12,
      "%": 13,
      "&": 14,
      "'": 15,
      "(": 16,
      ")": 17,
      "*": 18,
      "+": 19,
      ",": 20,
      "-": 21,
      ".": 22,
      "/": 23,
      "0": 24,
      "1": 25,
      "2": 26,
      "3": 27,
      "4": 28,
      "5": 29,
      "6": 30,
      "7": 31,
      "8": 32,
      "9": 33,
      ":": 34,
      ";": 35,
      "<": 36,
      "=": 37,
      ">": 38,
      "?": 39,
      "@": 40,
      "A": 41,
      "B": 42,
      "C": 43,
      "D": 44,
      "E": 45,
      "F": 46,
      "G": 47,
      "H": 48,
      "I": 49,
      "J": 50,
      "K": 51,
      "L": 52,
      "M": 53,
      "N": 54,
      "O": 55,
      "P": 56,
      "Q": 57,
      "R": 58,
      "S": 59,
      "T": 60,
      "U": 61,
      "V": 62,
      "W": 63,
      "X": 64,
      "Y": 65,
      "Z": 66,
      "[": 67,
      "\\": 68,
      "]": 69,
      "^": 70,
      "_": 71,
      "`": 72,
      "a": 73,
      "b": 74,
      "c": 75,
      "d": 76,
      "e": 77,
      "f": 78,
      "g": 79,
      "h": 80,
      "i": 81,
      "j": 82,
      "k": 83,
      "l": 84,
      "m": 85,
      "n": 86,
      "o": 87,
      "p": 88,
      "q": 89,
      "r": 90,
      "s": 91,
      "t": 92,
      "u": 93,
      "v": 94,
      "w": 95,
      "x": 96,
      "y": 97,
      "z": 98,
      "{": 99,
      "|": 100,
      "}": 101,
      "~": 102,
      "¡": 103,
      "¢": 104,
      "£": 105,
      "¤": 106,
      "¥": 107,
      "¦": 108,
      "§": 109,
      "¨": 110,
      "©": 111,
      "ª": 112,
      "«": 113,
      "¬": 114,
      "®": 115,
      "¯": 116,
      "°": 117,
      "±": 118,
      "²": 119,
      "³": 120,
      "´": 121,
      "µ": 122,
      "¶": 123,
      "·": 124,
      "¸": 125,
      "¹": 126,
      "º": 127,
      "»": 128,
      "¼": 129,
      "½": 130,
      "¾": 131,
      "¿": 132,
      "À": 133,
      "Á": 134,
      "Â": 135,
      "Ã": 136,
      "Ä": 137,
      "Å": 138,
      "Æ": 139,
      "Ç": 140,
      "È": 141,
      "É": 142,
      "Ê": 143,
      "Ë": 144,
      "Ì": 145,
      "Í": 146,
      "Î": 147,
      "Ï": 148,
      "Ð": 149,
      "Ñ": 150,
      "Ò": 151,
      "Ó": 152,
      "Ô": 153,
      "Õ": 154,
      "Ö": 155,
      "×": 156,
      "Ø": 157,
      "Ù": 158,
      "Ú": 159,
      "Û": 160,
      "Ü": 161,
      "Ý": 162,
      "Þ": 163,
      "ß": 164,
      "à": 165,
      "á": 166,
      "â": 167,
      "ã": 168,
      "ä": 169,
      "å": 170,
      "æ": 171,
      "ç": 172,
      "è": 173,
      "é": 174,
      "ê": 175,
      "ë": 176,
      "ì": 177,
      "í": 178,
      "î": 179,
      "ï": 180,
      "ð": 181,
      "ñ": 182,
      "ò": 183,
      "ó": 184,
      "ô": 185,
      "õ": 186,
      "ö": 187,
      "÷": 188,
      "ø": 189,
      "ù": 190,
      "ú": 191,
      "û": 192,
      "ü": 193,
      "ý": 194,
      "þ": 195,
      "ÿ": 196,
      "Ā": 197,
      "ā": 198,
      "Ă": 199,
      "ă": 200,
      "Ą": 201,
      "ą": 202,
      "Ć": 203,
      "ć": 204,
      "Ĉ": 205,
      "ĉ": 206,
      "Ċ": 207,
      "ċ": 208,
      "Č": 209,
      "č": 210,
      "Ď": 211,
      "ď": 212,
      "Đ": 213,
      "đ": 214,
      "Ē": 215,
      "ē": 216,
      "Ĕ": 217,
      "ĕ": 218,
      "Ė": 219,
      "ė": 220,
      "Ę": 221,
      "ę": 222,
      "Ě": 223,
      "ě": 224,
      "Ĝ": 225,
      "ĝ": 226,
      "Ğ": 227,
      "ğ": 228,
      "Ġ": 229,
      "ġ": 230,
      "Ģ": 231,
      "ģ": 232,
      "Ĥ": 233,
      "ĥ": 234,
      "Ħ": 235,
      "ħ": 236,
      "Ĩ": 237,
      "ĩ": 238,
      "Ī": 239,
      "ī": 240,
      "Ĭ": 241,
      "ĭ": 242,
      "Į": 243,
      "į": 244,
      "İ": 245,
      "ı": 246,
      "Ĳ": 247,
      "ĳ": 248,
      "Ĵ": 249,
      "ĵ": 250,
      "Ķ": 251,
      "ķ": 252,
      "ĸ": 253,
      "Ĺ": 254,
      "ĺ": 255,
      "Ļ": 256,
      "ļ": 257,
      "Ľ": 258,
      "ľ": 259,
      "Ŀ": 260,
      "ŀ": 261,
      "Ł": 262,
      "ł": 263,
      "Ń": 264,
      "co": 265,
      "um": 266,
      "lum": 267,
      "colum": 268,
      "column": 269,
      "Ġcolumn": 270,
      "TE": 271,
      "Ġt": 272,
      "le": 273,
      "ab": 274,
      "Ġtab": 275,
      "Ġtable": 276,
      "RE": 277,
      "XT": 278,
      "ĠTE": 279,
      "ĠTEXT": 280,
      "><": 281,
      "IN": 282,
      "ER": 283,
      "ĠIN": 284,
      "</": 285,
      "GER": 286,
      "LE": 287,
      "TEGER": 288,
      "REA": 289,
      "ĠINTEGER": 290,
      "he": 291,
      "ma": 292,
      "on": 293,
      "IM": 294,
      "st": 295,
      "qu": 296,
      "che": 297,
      "est": 298,
      "os": 299,
      ");": 300,
      "AB": 301,
      "AR": 302,
      "CREA": 303,
      "EY": 304,
      "KEY": 305,
      "PR": 306,
      "TAB": 307,
      "ion": 308,
      "ql": 309,
      "sche": 310,
      "sql": 311,
      "Ġ(": 312,
      "ĠKEY": 313,
      "ĠPR": 314,
      "ĠTAB": 315,
      "IMAR": 316,
      "quest": 317,
      "CREATE": 318,
      "schema": 319,
      "ĠPRIMAR": 320,
      "ĠTABLE": 321,
      "question": 322,
      "ĠPRIMARY": 323,
      "ERE": 324,
      "Ġa": 325,
      "ES": 326,
      "CT": 327,
      "),": 328,
      "RO": 329,
      "Ġw": 330,
      ";</": 331,
      "CES": 332,
      "ELE": 333,
      "FERE": 334,
      "FRO": 335,
      "NCES": 336,
      "SELE": 337,
      "bos": 338,
      "eos": 339,
      "ĠRE": 340,
      "ĠREA": 341,
      "ĠFRO": 342,
      ");</": 343,
      "FERENCES": 344,
      "SELECT": 345,
      "ĠREFERENCES": 346,
      "ĠREAL": 347,
      "ĠFROM": 348,
      "re": 349,
      "sh": 350,
      "Ġ=": 351,
      "ed": 352,
      "ve": 353,
      "or": 354,
      "HERE": 355,
      "WHERE": 356,
      "ĠWHERE": 357,
      "nd": 358,
      "Ġ'": 359,
      "Ġand": 360,
      "here": 361,
      "Ġwhere": 362,
      "ow": 363,
      "Ġf": 364,
      "Ġm": 365,
      "Ġme": 366,
      "Ġs": 367,
      "pp": 368,
      "ipp": 369,
      "ĠO": 370,
      "shipp": 371,
      "shipped": 372,
      "Ġo": 373,
      "Ġto": 374,
      "Ġse": 375,
      "ver": 376,
      "Ġ>": 377,
      "Ġe": 378,
      "it": 379,
      "Ġfor": 380,
      "show": 381,
      "in": 382,
      "Ġset": 383,
      "an": 384,
      "';</": 385,
      "Ġ3": 386,
      "Ġwit": 387,
      "Ġwith": 388,
      "ĠOR": 389,
      "te": 390,
      "Ġ1": 391,
      "Ġ4": 392,
      "can": 393,
      "ce": 394,
      "en": 395,
      "Ġma": 396,
      "is": 397,
      "Ġis": 398,
      "IT": 399,
      "LIM": 400,
      "pen": 401,
      "Ġshipped": 402,
      "ĠLIM": 403,
      "ĠLIMIT": 404,
      "Ġover": 405,
      "ch": 406,
      "lle": 407,
      "mp": 408,
      "comp": 409,
      "lete": 410,
      "Ġ10": 411,
      "cance": 412,
      "lled": 413,
      "complete": 414,
      "cancelled": 415,
      "Ġmat": 416,
      "Ġor": 417,
      "Ġg": 418,
      "Ġ30": 419,
      "ing": 420,
      "JO": 421,
      "NER": 422,
      "ĠA": 423,
      "ĠJO": 424,
      "ĠINNER": 425,
      "ĠON": 426,
      "ĠJOIN": 427,
      "ly": 428,
      "Ġon": 429,
      "Ġonly": 430,
      "ive": 431,
      "Ġthe": 432,
      "Ġgive": 433,
      "ĠD": 434,
      "Ġ40": 435,
      "BY": 436,
      "ND": 437,
      "ĠBY": 438,
      "ĠAND": 439,
      "ll": 440,
      "ching": 441,
      "Ġmatching": 442,
      "very": 443,
      "Ġevery": 444,
      "Ġl": 445,
      "wh": 446,
      "rn": 447,
      "tu": 448,
      "retu": 449,
      "return": 450,
      "open": 451,
      "Ġ5": 452,
      "Ġ6": 453,
      "Ġopen": 454,
      "ls": 455,
      "Ġh": 456,
      "Ġin": 457,
      "Ġcomplete": 458,
      "Ġcancelled": 459,
      "Ġall": 460,
      "DER": 461,
      "Ġ2": 462,
      "ĠM": 463,
      "ESC": 464,
      "ĠORDER": 465,
      "ĠDESC": 466,
      "by": 467,
      "Ġby": 468,
      "at": 469,
      "what": 470,
      "ro": 471,
      "ghe": 472,
      "ighe": 473,
      "Ġhighe": 474,
      "Ġhighest": 475,
      "Ġn": 476,
      "mon": 477,
      "Ġamon": 478,
      "Ġamong": 479,
      "ted": 480,
      "row": 481,
      "Ġrow": 482,
      "Ġrows": 483,
      "(*": 484,
      "CO": 485,
      "NT": 486,
      "UNT": 487,
      "ĠCO": 488,
      "ĠCOUNT": 489,
      "Ġfro": 490,
      "Ġfrom": 491,
      "ate": 492,
      "als": 493,
      "quals": 494,
      "Ġequals": 495,
      "ches": 496,
      "Ġmatches": 497,
      "eed": 498,
      "Ġneed": 499,
      "Ġd": 500,
      "Ġof": 501,
      "nt": 502,
      "ach": 503,
      "Ġeach": 504,
      "'s": 505,
      "ĠI": 506,
      "Ġsee": 507,
      "im": 508,
      "Ġlim": 509,
      "Ġlimit": 510,
      "ir": 511,
      "orted": 512,
      "Ġfir": 513,
      "Ġsorted": 514,
      "Ġfirst": 515,
      "Ġwe": 516,
      "Ġas": 517,
      "ove": 518,
      "Ġab": 519,
      "Ġabove": 520,
      "xce": 521,
      "eds": 522,
      "Ġexce": 523,
      "Ġexceeds": 524,
      "han": 525,
      "Ġthan": 526,
      "reate": 527,
      "Ġgreate": 528,
      "Ġgreater": 529,
      "AX": 530,
      "IS": 531,
      "SU": 532,
      "TIN": 533,
      "VG": 534,
      "ĠSU": 535,
      "Ġ100": 536,
      "ĠAVG": 537,
      "ĠDIS": 538,
      "Ġ60": 539,
      "ĠMIN": 540,
      "ĠMAX": 541,
      "(*)": 542,
      "TINCT": 543,
      "ĠSUM": 544,
      "ĠDISTINCT": 545,
      "Ġdi": 546,
      "ag": 547,
      "Ġaver": 548,
      "age": 549,
      "Ġaverage": 550,
      "Ġels": 551,
      "Ġelse": 552,
      "al": 553,
      "unt": 554,
      "count": 555,
      "Ġreturn": 556,
      "GRO": 557,
      "UP": 558,
      "ĠGRO": 559,
      "(*),": 560,
      "ĠGROUP": 561,
      "how": 562,
      "ny": 563,
      "Ġmany": 564,
      "Ġu": 565,
      "ere": 566,
      "ff": 567,
      "Ġdiff": 568,
      "erent": 569,
      "Ġdifferent": 570,
      "ich": 571,
      "which": 572,
      "Ġare": 573,
      "Ġreturning": 574,
      "Ġlimited": 575,
      "Ġcount": 576,
      "ave": 577,
      "Ġhave": 578,
      "Ġdo": 579,
      "owest": 580,
      "Ġlowest": 581,
      "pre": 582,
      "sen": 583,
      "Ġre": 584,
      "presen": 585,
      "Ġrepresen": 586,
      "Ġrepresented": 587,
      "ad": 588,
      "cr": 589,
      "oss": 590,
      "Ġacr": 591,
      "Ġup": 592,
      "add": 593,
      "Ġacross": 594,
      "fi": 595,
      "find": 596,
      "ist": 597,
      "list": 598,
      "Ġwell": 599,
      "cu": 600,
      "cal": 601,
      "late": 602,
      "culate": 603,
      "calculate": 604,
      "jo": 605,
      "Ġjo": 606,
      "ined": 607,
      "Ġjoined": 608,
      "king": 609,
      "inking": 610,
      "Ġlinking": 611,
      "20": 612,
      "25": 613,
      "40": 614,
      "60": 615,
      "75": 616,
      "90": 617,
      "Ġ75": 618,
      "Ġ90": 619,
      "Ġ120": 620,
      "Ġ140": 621,
      "Ġ160": 622,
      "Ġ50": 623,
      "Ġ20": 624,
      "Ġ225": 625,
      "give": 626,
      "ar": 627,
      "malle": 628,
      "Ġsmalle": 629,
      "Ġsmallest": 630,
      "tal": 631,
      "Ġtotal": 632,
      "gest": 633,
      "Ġlar": 634,
      "Ġlargest": 635,
      "be": 636,
      "umbe": 637,
      "Ġnumbe": 638,
      "Ġnumber": 639,
      "Ġsum": 640,
      "vg": 641,
      "Ġavg": 642,
      "ct": 643,
      "stin": 644,
      "Ġdistin": 645,
      "Ġdistinct": 646,
      "iqu": 647,
      "niqu": 648,
      "Ġmin": 649,
      "Ġuniqu": 650,
      "Ġunique": 651,
      "Ġmax": 652,
      "ear": 653,
      "Ġapp": 654,
      "Ġappear": 655,
      "Ġthere": 656,
      "for": 657,
      "ped": 658,
      "uped": 659,
      "Ġgro": 660,
      "Ġgrouped": 661,
      "ak": 662,
      "bre": 663,
      "own": 664,
      "Ġdown": 665,
      "Ġcounts": 666,
      "break": 667,
      "ale": 668,
      "Ġsale": 669,
      "Ġsales": 670
    },
    "merges": [
      [
        "c",
        "o"
      ],
      [
        "u",
        "m"
      ],
      [
        "l",
        "um"
      ],
      [
        "co",
        "lum"
      ],
      [
        "colum",
        "n"
      ],
      [
        "Ġ",
        "column"
      ],
      [
        "T",
        "E"
      ],
      [
        "Ġ",
        "t"
      ],
      [
        "l",
        "e"
      ],
      [
        "a",
        "b"
      ],
      [
        "Ġt",
        "ab"
      ],
      [
        "Ġtab",
        "le"
      ],
      [
        "R",
        "E"
      ],
      [
        "X",
        "T"
      ],
      [
        "Ġ",
        "TE"
      ],
      [
        "ĠTE",
        "XT"
      ],
      [
        ">",
        "<"
      ],
      [
        "I",
        "N"
      ],
      [
        "E",
        "R"
      ],
      [
        "Ġ",
        "IN"
      ],
      [
        "<",
        "/"
      ],
      [
        "G",
        "ER"
      ],
      [
        "L",
        "E"
      ],
      [
        "TE",
        "GER"
      ],
      [
        "RE",
        "A"
      ],
      [
        "ĠIN",
        "TEGER"
      ],
      [
        "h",
        "e"
      ],
      [
        "m",
        "a"
      ],
      [
        "o",
        "n"
      ],
      [
        "I",
        "M"
      ],
      [
        "s",
        "t"
      ],
      [
        "q",
        "u"
      ],
      [
        "c",
        "he"
      ],
      [
        "e",
        "st"
      ],
      [
        "o",
        "s"
      ],
      [
        ")",
        ";"
      ],
      [
        "A",
        "B"
      ],
      [
        "A",
        "R"
      ],
      [
        "C",
        "REA"
      ],
      [
        "E",
        "Y"
      ],
      [
        "K",
        "EY"
      ],
      [
        "P",
        "R"
      ],
      [
        "T",
        "AB"
      ],
      [
        "i",
        "on"
      ],
      [
        "q",
        "l"
      ],
      [
        "s",
        "che"
      ],
      [
        "s",
        "ql"
      ],
      [
        "Ġ",
        "("
      ],
      [
        "Ġ",
        "KEY"
      ],
      [
        "Ġ",
        "PR"
      ],
      [
        "Ġ",
        "TAB"
      ],
      [
        "IM",
        "AR"
      ],
      [
        "qu",
        "est"
      ],
      [
        "CREA",
        "TE"
      ],
      [
        "sche",
        "ma"
      ],
      [
        "ĠPR",
        "IMAR"
      ],
      [
        "ĠTAB",
        "LE"
      ],
      [
        "quest",
        "ion"
      ],
      [
        "ĠPRIMAR",
        "Y"
      ],
      [
        "E",
        "RE"
      ],
      [
        "Ġ",
        "a"
      ],
      [
        "E",
        "S"
      ],
      [
        "C",
        "T"
      ],
      [
        ")",
        ","
      ],
      [
        "R",
        "O"
      ],
      [
        "Ġ",
        "w"
      ],
      [
        ";",
        "</"
      ],
      [
        "C",
        "ES"
      ],
      [
        "E",
        "LE"
      ],
      [
        "F",
        "ERE"
      ],
      [
        "F",
        "RO"
      ],
      [
        "N",
        "CES"
      ],
      [
        "S",
        "ELE"
      ],
      [
        "b",
        "os"
      ],
      [
        "e",
        "os"
      ],
      [
        "Ġ",
        "RE"
      ],
      [
        "Ġ",
        "REA"
      ],
      [
        "Ġ",
        "FRO"
      ],
      [
        ");",
        "</"
      ],
      [
        "FERE",
        "NCES"
      ],
      [
        "SELE",
        "CT"
      ],
      [
        "ĠRE",
        "FERENCES"
      ],
      [
        "ĠREA",
        "L"
      ],
      [
        "ĠFRO",
        "M"
      ],
      [
        "r",
        "e"
      ],
      [
        "s",
        "h"
      ],
      [
        "Ġ",
        "="
      ],
      [
        "e",
        "d"
      ],
      [
        "v",
        "e"
      ],
      [
        "o",
        "r"
      ],
      [
        "H",
        "ERE"
      ],
      [
        "W",
        "HERE"
      ],
      [
        "Ġ",
        "WHERE"
      ],
      [
        "n",
        "d"
      ],
      [
        "Ġ",
        "'"
      ],
      [
        "Ġa",
        "nd"
      ],
      [
        "he",
        "re"
      ],
      [
        "Ġw",
        "here"
      ],
      [
        "o",
        "w"
      ],
      [
        "Ġ",
        "f"
      ],
      [
        "Ġ",
        "m"
      ],
      [
        "Ġm",
        "e"
      ],
      [
        "Ġ",
        "s"
      ],
      [
        "p",
        "p"
      ],
      [
        "i",
        "pp"
      ],
      [
        "Ġ",
        "O"
      ],
      [
        "sh",
        "ipp"
      ],
      [
        "shipp",
        "ed"
      ],
      [
        "Ġ",
        "o"
      ],
      [
        "Ġt",
        "o"
      ],
      [
        "Ġs",
        "e"
      ],
      [
        "ve",
        "r"
      ],
      [
        "Ġ",
        ">"
      ],
      [
        "Ġ",
        "e"
      ],
      [
        "i",
        "t"
      ],
      [
        "Ġf",
        "or"
      ],
      [
        "sh",
        "ow"
      ],
      [
        "i",
        "n"
      ],
      [
        "Ġse",
        "t"
      ],
      [
        "a",
        "n"
      ],
      [
        "'",
        ";</"
      ],
      [
        "Ġ",
        "3"
      ],
      [
        "Ġw",
        "it"
      ],
      [
        "Ġwit",
        "h"
      ],
      [
        "ĠO",
        "R"
      ],
      [
        "t",
        "e"
      ],
      [
        "Ġ",
        "1"
      ],
      [
        "Ġ",
        "4"
      ],
      [
        "c",
        "an"
      ],
      [
        "c",
        "e"
      ],
      [
        "e",
        "n"
      ],
      [
        "Ġ",
        "ma"
      ],
      [
        "i",
        "s"
      ],
      [
        "Ġ",
        "is"
      ],
      [
        "I",
        "T"
      ],
      [
        "L",
        "IM"
      ],
      [
        "p",
        "en"
      ],
      [
        "Ġ",
        "shipped"
      ],
      [
        "Ġ",
        "LIM"
      ],
      [
        "ĠLIM",
        "IT"
      ],
      [
        "Ġo",
        "ver"
      ],
      [
        "c",
        "h"
      ],
      [
        "l",
        "le"
      ],
      [
        "m",
        "p"
      ],
      [
        "co",
        "mp"
      ],
      [
        "le",
        "te"
      ],
      [
        "Ġ1",
        "0"
      ],
      [
        "can",
        "ce"
      ],
      [
        "lle",
        "d"
      ],
      [
        "comp",
        "lete"
      ],
      [
        "cance",
        "lled"
      ],
      [
        "Ġma",
        "t"
      ],
      [
        "Ġ",
        "or"
      ],
      [
        "Ġ",
        "g"
      ],
      [
        "Ġ3",
        "0"
      ],
      [
        "in",
        "g"
      ],
      [
        "J",
        "O"
      ],
      [
        "N",
        "ER"
      ],
      [
        "Ġ",
        "A"
      ],
      [
        "Ġ",
        "JO"
      ],
      [
        "ĠIN",
        "NER"
      ],
      [
        "ĠO",
        "N"
      ],
      [
        "ĠJO",
        "IN"
      ],
      [
        "l",
        "y"
      ],
      [
        "Ġ",
        "on"
      ],
      [
        "Ġon",
        "ly"
      ],
      [
        "i",
        "ve"
      ],
      [
        "Ġt",
        "he"
      ],
      [
        "Ġg",
        "ive"
      ],
      [
        "Ġ",
        "D"
      ],
      [
        "Ġ4",
        "0"
      ],
      [
        "B",
        "Y"
      ],
      [
        "N",
        "D"
      ],
      [
        "Ġ",
        "BY"
      ],
      [
        "ĠA",
        "ND"
      ],
      [
        "l",
        "l"
      ],
      [
        "ch",
        "ing"
      ],
      [
        "Ġmat",
        "ching"
      ],
      [
        "ver",
        "y"
      ],
      [
        "Ġe",
        "very"
      ],
      [
        "Ġ",
        "l"
      ],
      [
        "w",
        "h"
      ],
      [
        "r",
        "n"
      ],
      [
        "t",
        "u"
      ],
      [
        "re",
        "tu"
      ],
      [
        "retu",
        "rn"
      ],
      [
        "o",
        "pen"
      ],
      [
        "Ġ",
        "5"
      ],
      [
        "Ġ",
        "6"
      ],
      [
        "Ġo",
        "pen"
      ],
      [
        "l",
        "s"
      ],
      [
        "Ġ",
        "h"
      ],
      [
        "Ġ",
        "in"
      ],
      [
        "Ġ",
        "complete"
      ],
      [
        "Ġ",
        "cancelled"
      ],
      [
        "Ġa",
        "ll"
      ],
      [
        "D",
        "ER"
      ],
      [
        "Ġ",
        "2"
      ],
      [
        "Ġ",
        "M"
      ],
      [
        "ES",
        "C"
      ],
      [
        "ĠOR",
        "DER"
      ],
      [
        "ĠD",
        "ESC"
      ],
      [
        "b",
        "y"
      ],
      [
        "Ġ",
        "by"
      ],
      [
        "a",
        "t"
      ],
      [
        "wh",
        "at"
      ],
      [
        "r",
        "o"
      ],
      [
        "g",
        "he"
      ],
      [
        "i",
        "ghe"
      ],
      [
        "Ġh",
        "ighe"
      ],
      [
        "Ġhighe",
        "st"
      ],
      [
        "Ġ",
        "n"
      ],
      [
        "m",
        "on"
      ],
      [
        "Ġa",
        "mon"
      ],
      [
        "Ġamon",
        "g"
      ],
      [
        "t",
        "ed"
      ],
      [
        "r",
        "ow"
      ],
      [
        "Ġ",
        "row"
      ],
      [
        "Ġrow",
        "s"
      ],
      [
        "(",
        "*"
      ],
      [
        "C",
        "O"
      ],
      [
        "N",
        "T"
      ],
      [
        "U",
        "NT"
      ],
      [
        "Ġ",
        "CO"
      ],
      [
        "ĠCO",
        "UNT"
      ],
      [
        "Ġf",
        "ro"
      ],
      [
        "Ġfro",
        "m"
      ],
      [
        "a",
        "te"
      ],
      [
        "a",
        "ls"
      ],
      [
        "qu",
        "als"
      ],
      [
        "Ġe",
        "quals"
      ],
      [
        "che",
        "s"
      ],
      [
        "Ġmat",
        "ches"
      ],
      [
        "e",
        "ed"
      ],
      [
        "Ġn",
        "eed"
      ],
      [
        "Ġ",
        "d"
      ],
      [
        "Ġo",
        "f"
      ],
      [
        "n",
        "t"
      ],
      [
        "a",
        "ch"
      ],
      [
        "Ġe",
        "ach"
      ],
      [
        "'",
        "s"
      ],
      [
        "Ġ",
        "I"
      ],
      [
        "Ġse",
        "e"
      ],
      [
        "i",
        "m"
      ],
      [
        "Ġl",
        "im"
      ],
      [
        "Ġlim",
        "it"
      ],
      [
        "i",
        "r"
      ],
      [
        "or",
        "ted"
      ],
      [
        "Ġf",
        "ir"
      ],
      [
        "Ġs",
        "orted"
      ],
      [
        "Ġfir",
        "st"
      ],
      [
        "Ġw",
        "e"
      ],
      [
        "Ġa",
        "s"
      ],
      [
        "o",
        "ve"
      ],
      [
        "Ġ",
        "ab"
      ],
      [
        "Ġab",
        "ove"
      ],
      [
        "x",
        "ce"
      ],
      [
        "ed",
        "s"
      ],
      [
        "Ġe",
        "xce"
      ],
      [
        "Ġexce",
        "eds"
      ],
      [
        "h",
        "an"
      ],
      [
        "Ġt",
        "han"
      ],
      [
        "re",
        "ate"
      ],
      [
        "Ġg",
        "reate"
      ],
      [
        "Ġgreate",
        "r"
      ],
      [
        "A",
        "X"
      ],
      [
        "I",
        "S"
      ],
      [
        "S",
        "U"
      ],
      [
        "T",
        "IN"
      ],
      [
        "V",
        "G"
      ],
      [
        "Ġ",
        "SU"
      ],
      [
        "Ġ10",
        "0"
      ],
      [
        "ĠA",
        "VG"
      ],
      [
        "ĠD",
        "IS"
      ],
      [
        "Ġ6",
        "0"
      ],
      [
        "ĠM",
        "IN"
      ],
      [
        "ĠM",
        "AX"
      ],
      [
        "(*",
        ")"
      ],
      [
        "TIN",
        "CT"
      ],
      [
        "ĠSU",
        "M"
      ],
      [
        "ĠDIS",
        "TINCT"
      ],
      [
        "Ġd",
        "i"
      ],
      [
        "a",
        "g"
      ],
      [
        "Ġa",
        "ver"
      ],
      [
        "ag",
        "e"
      ],
      [
        "Ġaver",
        "age"
      ],
      [
        "Ġe",
        "ls"
      ],
      [
        "Ġels",
        "e"
      ],
      [
        "a",
        "l"
      ],
      [
        "u",
        "nt"
      ],
      [
        "co",
        "unt"
      ],
      [
        "Ġ",
        "return"
      ],
      [
        "G",
        "RO"
      ],
      [
        "U",
        "P"
      ],
      [
        "Ġ",
        "GRO"
      ],
      [
        "(*",
        "),"
      ],
      [
        "ĠGRO",
        "UP"
      ],
      [
        "h",
        "ow"
      ],
      [
        "n",
        "y"
      ],
      [
        "Ġma",
        "ny"
      ],
      [
        "Ġ",
        "u"
      ],
      [
        "e",
        "re"
      ],
      [
        "f",
        "f"
      ],
      [
        "Ġdi",
        "ff"
      ],
      [
        "ere",
        "nt"
      ],
      [
        "Ġdiff",
        "erent"
      ],
      [
        "i",
        "ch"
      ],
      [
        "wh",
        "ich"
      ],
      [
        "Ġa",
        "re"
      ],
      [
        "Ġreturn",
        "ing"
      ],
      [
        "Ġlimit",
        "ed"
      ],
      [
        "Ġ",
        "count"
      ],
      [
        "a",
        "ve"
      ],
      [
        "Ġh",
        "ave"
      ],
      [
        "Ġd",
        "o"
      ],
      [
        "ow",
        "est"
      ],
      [
        "Ġl",
        "owest"
      ],
      [
        "p",
        "re"
      ],
      [
        "s",
        "en"
      ],
      [
        "Ġ",
        "re"
      ],
      [
        "pre",
        "sen"
      ],
      [
        "Ġre",
        "presen"
      ],
      [
        "Ġrepresen",
        "ted"
      ],
      [
        "a",
        "d"
      ],
      [
        "c",
        "r"
      ],
      [
        "os",
        "s"
      ],
      [
        "Ġa",
        "cr"
      ],
      [
        "Ġu",
        "p"
      ],
      [
        "ad",
        "d"
      ],
      [
        "Ġacr",
        "oss"
      ],
      [
        "f",
        "i"
      ],
      [
        "fi",
        "nd"
      ],
      [
        "i",
        "st"
      ],
      [
        "l",
        "ist"
      ],
      [
        "Ġwe",
        "ll"
      ],
      [
        "c",
        "u"
      ],
      [
        "c",
        "al"
      ],
      [
        "l",
        "ate"
      ],
      [
        "cu",
        "late"
      ],
      [
        "cal",
        "culate"
      ],
      [
        "j",
        "o"
      ],
      [
        "Ġ",
        "jo"
      ],
      [
        "in",
        "ed"
      ],
      [
        "Ġjo",
        "ined"
      ],
      [
        "k",
        "ing"
      ],
      [
        "in",
        "king"
      ],
      [
        "Ġl",
        "inking"
      ],
      [
        "2",
        "0"
      ],
      [
        "2",
        "5"
      ],
      [
        "4",
        "0"
      ],
      [
        "6",
        "0"
      ],
      [
        "7",
        "5"
      ],
      [
        "9",
        "0"
      ],
      [
        "Ġ",
        "75"
      ],
      [
        "Ġ",
        "90"
      ],
      [
        "Ġ1",
        "20"
      ],
      [
        "Ġ1",
        "40"
      ],
      [
        "Ġ1",
        "60"
      ],
      [
        "Ġ5",
        "0"
      ],
      [
        "Ġ2",
        "0"
      ],
      [
        "Ġ2",
        "25"
      ],
      [
        "g",
        "ive"
      ],
      [
        "a",
        "r"
      ],
      [
        "ma",
        "lle"
      ],
      [
        "Ġs",
        "malle"
      ],
      [
        "Ġsmalle",
        "st"
      ],
      [
        "t",
        "al"
      ],
      [
        "Ġto",
        "tal"
      ],
      [
        "g",
        "est"
      ],
      [
        "Ġl",
        "ar"
      ],
      [
        "Ġlar",
        "gest"
      ],
      [
        "b",
        "e"
      ],
      [
        "um",
        "be"
      ],
      [
        "Ġn",
        "umbe"
      ],
      [
        "Ġnumbe",
        "r"
      ],
      [
        "Ġs",
        "um"
      ],
      [
        "v",
        "g"
      ],
      [
        "Ġa",
        "vg"
      ],
      [
        "c",
        "t"
      ],
      [
        "st",
        "in"
      ],
      [
        "Ġdi",
        "stin"
      ],
      [
        "Ġdistin",
        "ct"
      ],
      [
        "i",
        "qu"
      ],
      [
        "n",
        "iqu"
      ],
      [
        "Ġm",
        "in"
      ],
      [
        "Ġu",
        "niqu"
      ],
      [
        "Ġuniqu",
        "e"
      ],
      [
        "Ġma",
        "x"
      ],
      [
        "e",
        "ar"
      ],
      [
        "Ġa",
        "pp"
      ],
      [
        "Ġapp",
        "ear"
      ],
      [
        "Ġt",
        "here"
      ],
      [
        "f",
        "or"
      ],
      [
        "p",
        "ed"
      ],
      [
        "u",
        "ped"
      ],
      [
        "Ġg",
        "ro"
      ],
      [
        "Ġgro",
        "uped"
      ],
      [
        "a",
        "k"
      ],
      [
        "b",
        "re"
      ],
      [
        "ow",
        "n"
      ],
      [
        "Ġd",
        "own"
      ],
      [
        "Ġcount",
        "s"
      ],
      [
        "bre",
        "ak"
      ],
      [
        "a",
        "le"
      ],
      [
        "Ġs",
        "ale"
      ],
      [
        "Ġsale",
        "s"
      ]
    ]
  }
}