{
  "version": "1.0",
  "truncation": null,
  "padding": null,
  "added_tokens": [
    {
      "id": 0,
      "content": "<pad>",
      "single_word": false,
      "lstrip": false,
      "rstrip": false,
      "normalized": false,
      "special": true
    },
    {
      "id": 1,
      "content": "<bos>",
      "single_word": false,
      "lstrip": false,
      "rstrip": false,
      "normalized": false,
      "special": true
    },
    {
      "id": 2,
      "content": "<eos>",
      "single_word": false,
      "lstrip": false,
      "rstrip": false,
      "normalized": false,
      "special": true
    },
    {
      "id": 3,
      "content": "<schema>",
      "single_word": false,
      "lstrip": false,
      "rstrip": false,
      "normalized": false,
      "special": true
    },
    {
      "id": 4,
      "content": "</schema>",
      "single_word": false,
      "lstrip": false,
      "rstrip": false,
      "normalized": false,
      "special": true
    },
    {
      "id": 5,
      "content": "<question>",
      "single_word": false,
      "lstrip": false,
      "rstrip": false,
      "normalized": false,
      "special": true
    },
    {
      "id": 6,
      "content": "</question>",
      "single_word": false,
      "lstrip": false,
      "rstrip": false,
      "normalized": false,
      "special": true
    },
    {
      "id": 7,
      "content": "<sql>",
      "single_word": false,
      "lstrip": false,
      "rstrip": false,
      "normalized": false,
      "special": true
    },
    {
      "id": 8,
      "content": "</sql>",
      "single_word": false,
      "lstrip": false,
      "rstrip": false,
      "normalized": false,
      "special": true
    }
  ],
  "normalizer": null,
  "pre_tokenizer": {
    "type": "ByteLevel",
    "add_prefix_space": false,
    "trim_offsets": true,
    "use_regex": true
  },
  "post_processor": null,
  "decoder": {
    "type": "ByteLevel",
    "add_prefix_space": true,
    "trim_offsets": true,
    "use_regex": true
  },
  "model": {
    "type": "BPE",
    "dropout": null,
    "unk_token": null,
    "continuing_subword_prefix": null,
    "end_of_word_suffix": null,
    "fuse_unk": false,
    "byte_fallback": false,
    "ignore_merges": false,
    "vocab": {
      "<pad>": 0,
      "<bos>": 1,
      "<eos>": 2,
      "<schema>": 3,
      "</schema>": 4,
      "<question>": 5,
      "</question>": 6,
      "<sql>": 7,
      "</sql>": 8,
      "!": 9,
      "\"": 10,
      "#": 11,
      "$": 12,
      "%": 13,
      "&": 14,
      "'": 15,
      "(": 16,
      ")": 17,
      "*": 18,
      "+": 19,
      ",": 20,
      "-": 21,
      ".": 22,
      "/": 23,
      "0": 24,
      "1": 25,
      "2": 26,
      "3": 27,
      "4": 28,
      "5": 29,
      "6": 30,
      "7": 31,
      "8": 32,
      "9": 33,
      ":": 34,
      ";": 35,
      "<": 36,
      "=": 37,
      ">": 38,
      "?": 39,
      "@": 40,
      "A": 41,
      "B": 42,
      "C": 43,
      "D": 44,
      "E": 45,
      "F": 46,
      "G": 47,
      "H": 48,
      "I": 49,
      "J": 50,
      "K": 51,
      "L": 52,
      "M": 53,
      "N": 54,
      "O": 55,
      "P": 56,
      "Q": 57,
      "R": 58,
      "S": 59,
      "T": 60,
      "U": 61,
      "V": 62,
      "W": 63,
      "X": 64,
      "Y": 65,
      "Z": 66,
      "[": 67,
      "\\": 68,
      "]": 69,
      "^": 70,
      "_": 71,
      "`": 72,
      "a": 73,
      "b": 74,
      "c": 75,
      "d": 76,
      "e": 77,
      "f": 78,
      "g": 79,
      "h": 80,
      "i": 81,
      "j": 82,
      "k": 83,
      "l": 84,
      "m": 85,
      "n": 86,
      "o": 87,
      "p": 88,
      "q": 89,
      "r": 90,
      "s": 91,
      "t": 92,
      "u": 93,
      "v": 94,
      "w": 95,
      "x": 96,
      "y": 97,
      "z": 98,
      "{": 99,
      "|": 100,
      "}": 101,
      "~": 102,
      "¡": 103,
      "¢": 104,
      "£": 105,
      "¤": 106,
      "¥": 107,
      "¦": 108,
      "§": 109,
      "¨": 110,
      "©": 111,
      "ª": 112,
      "«": 113,
      "¬": 114,
      "®": 115,
      "¯": 116,
      "°": 117,
      "±": 118,
      "²": 119,
      "³": 120,
      "´": 121,
      "µ": 122,
      "¶": 123,
      "·": 124,
      "¸": 125,
      "¹": 126,
      "º": 127,
      "»": 128,
      "¼": 129,
      "½": 130,
      "¾": 131,
      "¿": 132,
      "À": 133,
      "Á": 134,
      "Â": 135,
      "Ã": 136,
      "Ä": 137,
      "Å": 138,
      "Æ": 139,
      "Ç": 140,
      "È": 141,
      "É": 142,
      "Ê": 143,
      "Ë": 144,
      "Ì": 145,
      "Í": 146,
      "Î": 147,
      "Ï": 148,
      "Ð": 149,
      "Ñ": 150,
      "Ò": 151,
      "Ó": 152,
      "Ô": 153,
      "Õ": 154,
      "Ö": 155,
      "×": 156,
      "Ø": 157,
      "Ù": 158,
      "Ú": 159,
      "Û": 160,
      "Ü": 161,
      "Ý": 162,
      "Þ": 163,
      "ß": 164,
      "à": 165,
      "á": 166,
      "â": 167,
      "ã": 168,
      "ä": 169,
      "å": 170,
      "æ": 171,
      "ç": 172,
      "è": 173,
      "é": 174,
      "ê": 175,
      "ë": 176,
      "ì": 177,
      "í": 178,
      "î": 179,
      "ï": 180,
      "ð": 181,
      "ñ": 182,
      "ò": 183,
      "ó": 184,
      "ô": 185,
      "õ": 186,
      "ö": 187,
      "÷": 188,
      "ø": 189,
      "ù": 190,
      "ú": 191,
      "û": 192,
      "ü": 193,
      "ý": 194,
      "þ": 195,
      "ÿ": 196,
      "Ā": 197,
      "ā": 198,
      "Ă": 199,
      "ă": 200,
      "Ą": 201,
      "ą": 202,
      "Ć": 203,
      "ć": 204,
      "Ĉ": 205,
      "ĉ": 206,
      "Ċ": 207,
      "ċ": 208,
      "Č": 209,
      "č": 210,
      "Ď": 211,
      "ď": 212,
      "Đ": 213,
      "đ": 214,
      "Ē": 215,
      "ē": 216,
      "Ĕ": 217,
      "ĕ": 218,
      "Ė": 219,
      "ė": 220,
      "Ę": 221,
      "ę": 222,
      "Ě": 223,
      "ě": 224,
      "Ĝ": 225,
      "ĝ": 226,
      "Ğ": 227,
      "ğ": 228,
      "Ġ": 229,
      "ġ": 230,
      "Ģ": 231,
      "ģ": 232,
      "Ĥ": 233,
      "ĥ": 234,
      "Ħ": 235,
      "ħ": 236,
      "Ĩ": 237,
      "ĩ": 238,
      "Ī": 239,
      "ī": 240,
      "Ĭ": 241,
      "ĭ": 242,
      "Į": 243,
      "į": 244,
      "İ": 245,
      "ı": 246,
      "Ĳ": 247,
      "ĳ": 248,
      "Ĵ": 249,
      "ĵ": 250,
      "Ķ": 251,
      "ķ": 252,
      "ĸ": 253,
      "Ĺ": 254,
      "ĺ": 255,
      "Ļ": 256,
      "ļ": 257,
      "Ľ": 258,
      "ľ": 259,
      "Ŀ": 260,
      "ŀ": 261,
      "Ł": 262,
      "ł": 263,
      "Ń": 264,
      "lu": 265,
      "co": 266,
      "mn": 267,
      "lumn": 268,
      "column": 269,
      "Ġcolumn": 270,
      "TE": 271,
      "Ġt": 272,
      "XT": 273,
      "ĠTE": 274,
      "ĠTEXT": 275,
      "le": 276,
      "ab": 277,
      "able": 278,
      "Ġtable": 279,
      "RE": 280,
      "><": 281,
      "IN": 282,
      "he": 283,
      "ER": 284,
      "ĠIN": 285,
      "</": 286,
      "GER": 287,
      "LE": 288,
      "TEGER": 289,
      "REA": 290,
      "ĠINTEGER": 291,
      "st": 292,
      "on": 293,
      "ma": 294,
      "qu": 295,
      "che": 296,
      "os": 297,
      "IM": 298,
      "alu": 299,
      "valu": 300,
      "Ġvalu": 301,
      "Ġvalue": 302,
      "est": 303,
      ");": 304,
      "AB": 305,
      "AR": 306,
      "CREA": 307,
      "EY": 308,
      "KEY": 309,
      "PR": 310,
      "TAB": 311,
      "ion": 312,
      "ql": 313,
      "sche": 314,
      "sql": 315,
      "Ġ(": 316,
      "ĠKEY": 317,
      "ĠPR": 318,
      "ĠTAB": 319,
      "quest": 320,
      "IMAR": 321,
      "CREATE": 322,
      "schema": 323,
      "ĠPRIMAR": 324,
      "ĠTABLE": 325,
      "question": 326,
      "ĠPRIMARY": 327,
      "ERE": 328,
      "CT": 329,
      "Ġ=": 330,
      "ES": 331,
      "RO": 332,
      ";</": 333,
      "CES": 334,
      "ELE": 335,
      "FERE": 336,
      "FRO": 337,
      "NCES": 338,
      "SELE": 339,
      "bos": 340,
      "eos": 341,
      "ĠRE": 342,
      "ĠREA": 343,
      "ĠFRO": 344,
      ");</": 345,
      "FERENCES": 346,
      "SELECT": 347,
      "ĠREFERENCES": 348,
      "ĠREAL": 349,
      "ĠFROM": 350,
      "Ġa": 351,
      "),": 352,
      "Ġw": 353,
      "HERE": 354,
      "WHERE": 355,
      "ĠWHERE": 356,
      "Ġwhe": 357,
      "Ġthe": 358,
      "or": 359,
      "Ġf": 360,
      "nd": 361,
      "ĠO": 362,
      "10": 363,
      "re": 364,
      "Ġe": 365,
      "Ġma": 366,
      "ow": 367,
      "Ġand": 368,
      "Ġwhen": 369,
      "is": 370,
      "Ġis": 371,
      "how": 372,
      "Ġm": 373,
      "Ġb": 374,
      "Ġmat": 375,
      "ed": 376,
      "Ġto": 377,
      "show": 378,
      "at": 379,
      "al": 380,
      "in": 381,
      "Ġme": 382,
      "ve": 383,
      "Ġfor": 384,
      "Ġon": 385,
      "qual": 386,
      "Ġequal": 387,
      "Ġequals": 388,
      "ĠOR": 389,
      "ches": 390,
      "Ġmatches": 391,
      "ĠA": 392,
      "ly": 393,
      "JO": 394,
      "NER": 395,
      "ĠJO": 396,
      "ĠINNER": 397,
      "ĠON": 398,
      "ĠJOIN": 399,
      "Ġonly": 400,
      "Ġor": 401,
      "ir": 402,
      "ong": 403,
      "hat": 404,
      "Ġwhere": 405,
      "ut": 406,
      "Ġbut": 407,
      "Ġl": 408,
      "cr": 409,
      "oss": 410,
      "Ġacr": 411,
      "Ġacross": 412,
      "what": 413,
      "ist": 414,
      "it": 415,
      "ver": 416,
      "));</": 417,
      "ĠM": 418,
      "list": 419,
      "(*": 420,
      "CO": 421,
      "NT": 422,
      "UNT": 423,
      "ĠCO": 424,
      "ĠCOUNT": 425,
      "om": 426,
      "rom": 427,
      "Ġfrom": 428,
      "Ġfir": 429,
      "Ġfirst": 430,
      "ND": 431,
      "ĠAND": 432,
      "Ġwit": 433,
      "(*)": 434,
      "Ġwith": 435,
      "ĠD": 436,
      "Ġever": 437,
      "Ġevery": 438,
      "Ġj": 439,
      "Ġre": 440,
      "Ġco": 441,
      "um": 442,
      "fi": 443,
      "find": 444,
      "im": 445,
      "gi": 446,
      "give": 447,
      "el": 448,
      "Ġbel": 449,
      "Ġbelong": 450,
      "IT": 451,
      "LIM": 452,
      "ĠLIM": 453,
      "ĠLIMIT": 454,
      "er": 455,
      "ct": 456,
      "BY": 457,
      "ĠBY": 458,
      "mong": 459,
      "Ġamong": 460,
      "un": 461,
      "table": 462,
      "DER": 463,
      "ĠORDER": 464,
      "hi": 465,
      "Ġs": 466,
      "Ġth": 467,
      "ch": 468,
      "Ġ>": 469,
      "oin": 470,
      "Ġmatch": 471,
      "ing": 472,
      "Ġjoin": 473,
      "Ġmatching": 474,
      "Ġjoined": 475,
      "ked": 476,
      "Ġtheir": 477,
      "inked": 478,
      "Ġlinked": 479,
      "ect": 480,
      "lat": 481,
      "nn": 482,
      "Ġrelat": 483,
      "Ġconn": 484,
      "ected": 485,
      "Ġrelated": 486,
      "Ġconnected": 487,
      "imum": 488,
      "IS": 489,
      "TIN": 490,
      "ĠDIS": 491,
      "TINCT": 492,
      "ĠDISTINCT": 493,
      "ĠMIN": 494,
      "an": 495,
      "VG": 496,
      "ĠAVG": 497,
      "AX": 498,
      "ĠMAX": 499,
      "SU": 500,
      "ĠSU": 501,
      "ĠSUM": 502,
      "unt": 503,
      "11": 504,
      "ar": 505,
      "Ġd": 506,
      "ll": 507,
      "Ġall": 508,
      "rn": 509,
      "tu": 510,
      "turn": 511,
      "Ġby": 512,
      "ghe": 513,
      "Ġhi": 514,
      "ESC": 515,
      "ĠDESC": 516,
      "ghest": 517,
      "Ġhighest": 518,
      "ose": 519,
      "Ġthose": 520,
      "Ġn": 521,
      "der": 522,
      "Ġorder": 523,
      "ort": 524,
      "Ġsort": 525,
      "SC": 526,
      "owest": 527,
      "ĠASC": 528,
      "Ġlowest": 529,
      "Ġwhi": 530,
      "Ġwhile": 531,
      "plu": 532,
      "Ġplu": 533,
      "Ġplus": 534,
      "ximum": 535,
      "Ġmaximum": 536,
      "Ġmin": 537,
      "Ġminimum": 538,
      "ad": 539,
      "up": 540,
      "Ġup": 541,
      "add": 542,
      "Ġthan": 543,
      "ag": 544,
      "Ġaver": 545,
      "age": 546,
      "Ġaverage": 547,
      "ust": 548,
      "Ġjust": 549,
      "Ġreturn": 550,
      "lle": 551,
      "malle": 552,
      "Ġsmalle": 553,
      "Ġsmallest": 554,
      "Ġmean": 555,
      "gest": 556,
      "Ġlar": 557,
      "Ġlargest": 558,
      "count": 559,
      "Ġcount": 560,
      "ber": 561,
      "of": 562,
      "Ġof": 563,
      "umber": 564,
      "Ġnumber": 565,
      "tal": 566,
      "Ġtotal": 567,
      "Ġthat": 568,
      "Ġlim": 569,
      "Ġlimit": 570,
      ".*": 571,
      "ny": 572,
      "Ġare": 573,
      "Ġthere": 574,
      "Ġmany": 575,
      "gre": 576,
      "Ġgre": 577,
      "ater": 578,
      "Ġgreater": 579,
      "ce": 580,
      "xce": 581,
      "Ġexce": 582,
      "eds": 583,
      "Ġexceeds": 584,
      "ove": 585,
      "Ġab": 586,
      "Ġabove": 587,
      "iqu": 588,
      "Ġun": 589,
      "ique": 590,
      "Ġunique": 591,
      "ere": 592,
      "ear": 593,
      "ff": 594,
      "iff": 595,
      "nt": 596,
      "pp": 597,
      "Ġapp": 598,
      "Ġdiff": 599,
      "erent": 600,
      "Ġappear": 601,
      "Ġdifferent": 602,
      "inct": 603,
      "istinct": 604,
      "Ġdistinct": 605,
      "<=": 606,
      "Ġ<=": 607,
      "return": 608,
      "GRO": 609,
      "UP": 610,
      "ĠGRO": 611,
      "(*),": 612,
      "ĠGROUP": 613,
      "ore": 614,
      "Ġmore": 615,
      "Ġno": 616,
      "ost": 617,
      "Ġat": 618,
      "Ġmost": 619,
      "ep": 620,
      "ely": 621,
      "ately": 622,
      "Ġsep": 623,
      "arately": 624,
      "Ġseparately": 625,
      "ak": 626,
      "ach": 627,
      "bre": 628,
      "for": 629,
      "Ġshow": 630,
      "Ġeach": 631,
      "own": 632,
      "Ġdown": 633,
      "break": 634,
      "ale": 635,
      "Ġsale": 636
    },
    "merges": [
      [
        "l",
        "u"
      ],
      [
        "c",
        "o"
      ],
      [
        "m",
        "n"
      ],
      [
        "lu",
        "mn"
      ],
      [
        "co",
        "lumn"
      ],
      [
        "Ġ",
        "column"
      ],
      [
        "T",
        "E"
      ],
      [
        "Ġ",
        "t"
      ],
      [
        "X",
        "T"
      ],
      [
        "Ġ",
        "TE"
      ],
      [
        "ĠTE",
        "XT"
      ],
      [
        "l",
        "e"
      ],
      [
        "a",
        "b"
      ],
      [
        "ab",
        "le"
      ],
      [
        "Ġt",
        "able"
      ],
      [
        "R",
        "E"
      ],
      [
        ">",
        "<"
      ],
      [
        "I",
        "N"
      ],
      [
        "h",
        "e"
      ],
      [
        "E",
        "R"
      ],
      [
        "Ġ",
        "IN"
      ],
      [
        "<",
        "/"
      ],
      [
        "G",
        "ER"
      ],
      [
        "L",
        "E"
      ],
      [
        "TE",
        "GER"
      ],
      [
        "RE",
        "A"
      ],
      [
        "ĠIN",
        "TEGER"
      ],
      [
        "s",
        "t"
      ],
      [
        "o",
        "n"
      ],
      [
        "m",
        "a"
      ],
      [
        "q",
        "u"
      ],
      [
        "c",
        "he"
      ],
      [
        "o",
        "s"
      ],
      [
        "I",
        "M"
      ],
      [
        "a",
        "lu"
      ],
      [
        "v",
        "alu"
      ],
      [
        "Ġ",
        "valu"
      ],
      [
        "Ġvalu",
        "e"
      ],
      [
        "e",
        "st"
      ],
      [
        ")",
        ";"
      ],
      [
        "A",
        "B"
      ],
      [
        "A",
        "R"
      ],
      [
        "C",
        "REA"
      ],
      [
        "E",
        "Y"
      ],
      [
        "K",
        "EY"
      ],
      [
        "P",
        "R"
      ],
      [
        "T",
        "AB"
      ],
      [
        "i",
        "on"
      ],
      [
        "q",
        "l"
      ],
      [
        "s",
        "che"
      ],
      [
        "s",
        "ql"
      ],
      [
        "Ġ",
        "("
      ],
      [
        "Ġ",
        "KEY"
      ],
      [
        "Ġ",
        "PR"
      ],
      [
        "Ġ",
        "TAB"
      ],
      [
        "qu",
        "est"
      ],
      [
        "IM",
        "AR"
      ],
      [
        "CREA",
        "TE"
      ],
      [
        "sche",
        "ma"
      ],
      [
        "ĠPR",
        "IMAR"
      ],
      [
        "ĠTAB",
        "LE"
      ],
      [
        "quest",
        "ion"
      ],
      [
        "ĠPRIMAR",
        "Y"
      ],
      [
        "E",
        "RE"
      ],
      [
        "C",
        "T"
      ],
      [
        "Ġ",
        "="
      ],
      [
        "E",
        "S"
      ],
      [
        "R",
        "O"
      ],
      [
        ";",
        "</"
      ],
      [
        "C",
        "ES"
      ],
      [
        "E",
        "LE"
      ],
      [
        "F",
        "ERE"
      ],
      [
        "F",
        "RO"
      ],
      [
        "N",
        "CES"
      ],
      [
        "S",
        "ELE"
      ],
      [
        "b",
        "os"
      ],
      [
        "e",
        "os"
      ],
      [
        "Ġ",
        "RE"
      ],
      [
        "Ġ",
        "REA"
      ],
      [
        "Ġ",
        "FRO"
      ],
      [
        ");",
        "</"
      ],
      [
        "FERE",
        "NCES"
      ],
      [
        "SELE",
        "CT"
      ],
      [
        "ĠRE",
        "FERENCES"
      ],
      [
        "ĠREA",
        "L"
      ],
      [
        "ĠFRO",
        "M"
      ],
      [
        "Ġ",
        "a"
      ],
      [
        ")",
        ","
      ],
      [
        "Ġ",
        "w"
      ],
      [
        "H",
        "ERE"
      ],
      [
        "W",
        "HERE"
      ],
      [
        "Ġ",
        "WHERE"
      ],
      [
        "Ġw",
        "he"
      ],
      [
        "Ġt",
        "he"
      ],
      [
        "o",
        "r"
      ],
      [
        "Ġ",
        "f"
      ],
      [
        "n",
        "d"
      ],
      [
        "Ġ",
        "O"
      ],
      [
        "1",
        "0"
      ],
      [
        "r",
        "e"
      ],
      [
        "Ġ",
        "e"
      ],
      [
        "Ġ",
        "ma"
      ],
      [
        "o",
        "w"
      ],
      [
        "Ġa",
        "nd"
      ],
      [
        "Ġwhe",
        "n"
      ],
      [
        "i",
        "s"
      ],
      [
        "Ġ",
        "is"
      ],
      [
        "h",
        "ow"
      ],
      [
        "Ġ",
        "m"
      ],
      [
        "Ġ",
        "b"
      ],
      [
        "Ġma",
        "t"
      ],
      [
        "e",
        "d"
      ],
      [
        "Ġt",
        "o"
      ],
      [
        "s",
        "how"
      ],
      [
        "a",
        "t"
      ],
      [
        "a",
        "l"
      ],
      [
        "i",
        "n"
      ],
      [
        "Ġm",
        "e"
      ],
      [
        "v",
        "e"
      ],
      [
        "Ġf",
        "or"
      ],
      [
        "Ġ",
        "on"
      ],
      [
        "qu",
        "al"
      ],
      [
        "Ġe",
        "qual"
      ],
      [
        "Ġequal",
        "s"
      ],
      [
        "ĠO",
        "R"
      ],
      [
        "che",
        "s"
      ],
      [
        "Ġmat",
        "ches"
      ],
      [
        "Ġ",
        "A"
      ],
      [
        "l",
        "y"
      ],
      [
        "J",
        "O"
      ],
      [
        "N",
        "ER"
      ],
      [
        "Ġ",
        "JO"
      ],
      [
        "ĠIN",
        "NER"
      ],
      [
        "ĠO",
        "N"
      ],
      [
        "ĠJO",
        "IN"
      ],
      [
        "Ġon",
        "ly"
      ],
      [
        "Ġ",
        "or"
      ],
      [
        "i",
        "r"
      ],
      [
        "on",
        "g"
      ],
      [
        "h",
        "at"
      ],
      [
        "Ġwhe",
        "re"
      ],
      [
        "u",
        "t"
      ],
      [
        "Ġb",
        "ut"
      ],
      [
        "Ġ",
        "l"
      ],
      [
        "c",
        "r"
      ],
      [
        "os",
        "s"
      ],
      [
        "Ġa",
        "cr"
      ],
      [
        "Ġacr",
        "oss"
      ],
      [
        "w",
        "hat"
      ],
      [
        "i",
        "st"
      ],
      [
        "i",
        "t"
      ],
      [
        "ve",
        "r"
      ],
      [
        ")",
        ");</"
      ],
      [
        "Ġ",
        "M"
      ],
      [
        "l",
        "ist"
      ],
      [
        "(",
        "*"
      ],
      [
        "C",
        "O"
      ],
      [
        "N",
        "T"
      ],
      [
        "U",
        "NT"
      ],
      [
        "Ġ",
        "CO"
      ],
      [
        "ĠCO",
        "UNT"
      ],
      [
        "o",
        "m"
      ],
      [
        "r",
        "om"
      ],
      [
        "Ġf",
        "rom"
      ],
      [
        "Ġf",
        "ir"
      ],
      [
        "Ġfir",
        "st"
      ],
      [
        "N",
        "D"
      ],
      [
        "ĠA",
        "ND"
      ],
      [
        "Ġw",
        "it"
      ],
      [
        "(*",
        ")"
      ],
      [
        "Ġwit",
        "h"
      ],
      [
        "Ġ",
        "D"
      ],
      [
        "Ġe",
        "ver"
      ],
      [
        "Ġever",
        "y"
      ],
      [
        "Ġ",
        "j"
      ],
      [
        "Ġ",
        "re"
      ],
      [
        "Ġ",
        "co"
      ],
      [
        "u",
        "m"
      ],
      [
        "f",
        "i"
      ],
      [
        "fi",
        "nd"
      ],
      [
        "i",
        "m"
      ],
      [
        "g",
        "i"
      ],
      [
        "gi",
        "ve"
      ],
      [
        "e",
        "l"
      ],
      [
        "Ġb",
        "el"
      ],
      [
        "Ġbel",
        "ong"
      ],
      [
        "I",
        "T"
      ],
      [
        "L",
        "IM"
      ],
      [
        "Ġ",
        "LIM"
      ],
      [
        "ĠLIM",
        "IT"
      ],
      [
        "e",
        "r"
      ],
      [
        "c",
        "t"
      ],
      [
        "B",
        "Y"
      ],
      [
        "Ġ",
        "BY"
      ],
      [
        "m",
        "ong"
      ],
      [
        "Ġa",
        "mong"
      ],
      [
        "u",
        "n"
      ],
      [
        "t",
        "able"
      ],
      [
        "D",
        "ER"
      ],
      [
        "ĠOR",
        "DER"
      ],
      [
        "h",
        "i"
      ],
      [
        "Ġ",
        "s"
      ],
      [
        "Ġt",
        "h"
      ],
      [
        "c",
        "h"
      ],
      [
        "Ġ",
        ">"
      ],
      [
        "o",
        "in"
      ],
      [
        "Ġmat",
        "ch"
      ],
      [
        "in",
        "g"
      ],
      [
        "Ġj",
        "oin"
      ],
      [
        "Ġmatch",
        "ing"
      ],
      [
        "Ġjoin",
        "ed"
      ],
      [
        "k",
        "ed"
      ],
      [
        "Ġthe",
        "ir"
      ],
      [
        "in",
        "ked"
      ],
      [
        "Ġl",
        "inked"
      ],
      [
        "e",
        "ct"
      ],
      [
        "l",
        "at"
      ],
      [
        "n",
        "n"
      ],
      [
        "Ġre",
        "lat"
      ],
      [
        "Ġco",
        "nn"
      ],
      [
        "ect",
        "ed"
      ],
      [
        "Ġrelat",
        "ed"
      ],
      [
        "Ġconn",
        "ected"
      ],
      [
        "im",
        "um"
      ],
      [
        "I",
        "S"
      ],
      [
        "T",
        "IN"
      ],
      [
        "ĠD",
        "IS"
      ],
      [
        "TIN",
        "CT"
      ],
      [
        "ĠDIS",
        "TINCT"
      ],
      [
        "ĠM",
        "IN"
      ],
      [
        "a",
        "n"
      ],
      [
        "V",
        "G"
      ],
      [
        "ĠA",
        "VG"
      ],
      [
        "A",
        "X"
      ],
      [
        "ĠM",
        "AX"
      ],
      [
        "S",
        "U"
      ],
      [
        "Ġ",
        "SU"
      ],
      [
        "ĠSU",
        "M"
      ],
      [
        "un",
        "t"
      ],
      [
        "1",
        "1"
      ],
      [
        "a",
        "r"
      ],
      [
        "Ġ",
        "d"
      ],
      [
        "l",
        "l"
      ],
      [
        "Ġa",
        "ll"
      ],
      [
        "r",
        "n"
      ],
      [
        "t",
        "u"
      ],
      [
        "tu",
        "rn"
      ],
      [
        "Ġb",
        "y"
      ],
      [
        "g",
        "he"
      ],
      [
        "Ġ",
        "hi"
      ],
      [
        "ES",
        "C"
      ],
      [
        "ĠD",
        "ESC"
      ],
      [
        "ghe",
        "st"
      ],
      [
        "Ġhi",
        "ghest"
      ],
      [
        "os",
        "e"
      ],
      [
        "Ġth",
        "ose"
      ],
      [
        "Ġ",
        "n"
      ],
      [
        "d",
        "er"
      ],
      [
        "Ġor",
        "der"
      ],
      [
        "or",
        "t"
      ],
      [
        "Ġs",
        "ort"
      ],
      [
        "S",
        "C"
      ],
      [
        "ow",
        "est"
      ],
      [
        "ĠA",
        "SC"
      ],
      [
        "Ġl",
        "owest"
      ],
      [
        "Ġw",
        "hi"
      ],
      [
        "Ġwhi",
        "le"
      ],
      [
        "p",
        "lu"
      ],
      [
        "Ġ",
        "plu"
      ],
      [
        "Ġplu",
        "s"
      ],
      [
        "x",
        "imum"
      ],
      [
        "Ġma",
        "ximum"
      ],
      [
        "Ġm",
        "in"
      ],
      [
        "Ġmin",
        "imum"
      ],
      [
        "a",
        "d"
      ],
      [
        "u",
        "p"
      ],
      [
        "Ġ",
        "up"
      ],
      [
        "ad",
        "d"
      ],
      [
        "Ġth",
        "an"
      ],
      [
        "a",
        "g"
      ],
      [
        "Ġa",
        "ver"
      ],
      [
        "ag",
        "e"
      ],
      [
        "Ġaver",
        "age"
      ],
      [
        "u",
        "st"
      ],
      [
        "Ġj",
        "ust"
      ],
      [
        "Ġre",
        "turn"
      ],
      [
        "l",
        "le"
      ],
      [
        "ma",
        "lle"
      ],
      [
        "Ġs",
        "malle"
      ],
      [
        "Ġsmalle",
        "st"
      ],
      [
        "Ġme",
        "an"
      ],
      [
        "g",
        "est"
      ],
      [
        "Ġl",
        "ar"
      ],
      [
        "Ġlar",
        "gest"
      ],
      [
        "co",
        "unt"
      ],
      [
        "Ġco",
        "unt"
      ],
      [
        "b",
        "er"
      ],
      [
        "o",
        "f"
      ],
      [
        "Ġ",
        "of"
      ],
      [
        "um",
        "ber"
      ],
      [
        "Ġn",
        "umber"
      ],
      [
        "t",
        "al"
      ],
      [
        "Ġto",
        "tal"
      ],
      [
        "Ġt",
        "hat"
      ],
      [
        "Ġl",
        "im"
      ],
      [
        "Ġlim",
        "it"
      ],
      [
        ".",
        "*"
      ],
      [
        "n",
        "y"
      ],
      [
        "Ġa",
        "re"
      ],
      [
        "Ġthe",
        "re"
      ],
      [
        "Ġma",
        "ny"
      ],
      [
        "g",
        "re"
      ],
      [
        "Ġ",
        "gre"
      ],
      [
        "at",
        "er"
      ],
      [
        "Ġgre",
        "ater"
      ],
      [
        "c",
        "e"
      ],
      [
        "x",
        "ce"
      ],
      [
        "Ġe",
        "xce"
      ],
      [
        "ed",
        "s"
      ],
      [
        "Ġexce",
        "eds"
      ],
      [
        "o",
        "ve"
      ],
      [
        "Ġ",
        "ab"
      ],
      [
        "Ġab",
        "ove"
      ],
      [
        "i",
        "qu"
      ],
      [
        "Ġ",
        "un"
      ],
      [
        "iqu",
        "e"
      ],
      [
        "Ġun",
        "ique"
      ],
      [
        "e",
        "re"
      ],
      [
        "e",
        "ar"
      ],
      [
        "f",
        "f"
      ],
      [
        "i",
        "ff"
      ],
      [
        "n",
        "t"
      ],
      [
        "p",
        "p"
      ],
      [
        "Ġa",
        "pp"
      ],
      [
        "Ġd",
        "iff"
      ],
      [
        "ere",
        "nt"
      ],
      [
        "Ġapp",
        "ear"
      ],
      [
        "Ġdiff",
        "erent"
      ],
      [
        "in",
        "ct"
      ],
      [
        "ist",
        "inct"
      ],
      [
        "Ġd",
        "istinct"
      ],
      [
        "<",
        "="
      ],
      [
        "Ġ",
        "<="
      ],
      [
        "re",
        "turn"
      ],
      [
        "G",
        "RO"
      ],
      [
        "U",
        "P"
      ],
      [
        "Ġ",
        "GRO"
      ],
      [
        "(*",
        "),"
      ],
      [
        "ĠGRO",
        "UP"
      ],
      [
        "or",
        "e"
      ],
      [
        "Ġm",
        "ore"
      ],
      [
        "Ġn",
        "o"
      ],
      [
        "o",
        "st"
      ],
      [
        "Ġa",
        "t"
      ],
      [
        "Ġm",
        "ost"
      ],
      [
        "e",
        "p"
      ],
      [
        "e",
        "ly"
      ],
      [
        "at",
        "ely"
      ],
      [
        "Ġs",
        "ep"
      ],
      [
        "ar",
        "ately"
      ],
      [
        "Ġsep",
        "arately"
      ],
      [
        "a",
        "k"
      ],
      [
        "a",
        "ch"
      ],
      [
        "b",
        "re"
      ],
      [
        "f",
        "or"
      ],
      [
        "Ġ",
        "show"
      ],
      [
        "Ġe",
        "ach"
      ],
      [
        "ow",
        "n"
      ],
      [
        "Ġd",
        "own"
      ],
      [
        "bre",
        "ak"
      ],
      [
        "a",
        "le"
      ],
      [
        "Ġs",
        "ale"
      ]
    ]
  }
}