{
  "version": "1.0",
  "truncation": null,
  "padding": null,
  "added_tokens": [
    {
      "id": 0,
      "content": "<pad>",
      "single_word": false,
      "lstrip": false,
      "rstrip": false,
      "normalized": false,
      "special": true
    },
    {
      "id": 1,
      "content": "<bos>",
      "single_word": false,
      "lstrip": false,
      "rstrip": false,
      "normalized": false,
      "special": true
    },
    {
      "id": 2,
      "content": "<eos>",
      "single_word": false,
      "lstrip": false,
      "rstrip": false,
      "normalized": false,
      "special": true
    },
    {
      "id": 3,
      "content": "<schema>",
      "single_word": false,
      "lstrip": false,
      "rstrip": false,
      "normalized": false,
      "special": true
    },
    {
      "id": 4,
      "content": "</schema>",
      "single_word": false,
      "lstrip": false,
      "rstrip": false,
      "normalized": false,
      "special": true
    },
    {
      "id": 5,
      "content": "<question>",
      "single_word": false,
      "lstrip": false,
      "rstrip": false,
      "normalized": false,
      "special": true
    },
    {
      "id": 6,
      "content": "</question>",
      "single_word": false,
      "lstrip": false,
      "rstrip": false,
      "normalized": false,
      "special": true
    },
    {
      "id": 7,
      "content": "<sql>",
      "single_word": false,
      "lstrip": false,
      "rstrip": false,
      "normalized": false,
      "special": true
    },
    {
      "id": 8,
      "content": "</sql>",
      "single_word": false,
      "lstrip": false,
      "rstrip": false,
      "normalized": false,
      "special": true
    }
  ],
  "normalizer": null,
  "pre_tokenizer": {
    "type": "ByteLevel",
    "add_prefix_space": false,
    "trim_offsets": true,
    "use_regex": true
  },
  "post_processor": null,
  "decoder": {
    "type": "ByteLevel",
    "add_prefix_space": true,
    "trim_offsets": true,
    "use_regex": true
  },
  "model": {
    "type": "BPE",
    "dropout": null,
    "unk_token": null,
    "continuing_subword_prefix": null,
    "end_of_word_suffix": null,
    "fuse_unk": false,
    "byte_fallback": false,
    "ignore_merges": false,
    "vocab": {
      "<pad>": 0,
      "<bos>": 1,
      "<eos>": 2,
      "<schema>": 3,
      "</schema>": 4,
      "<question>": 5,
      "</question>": 6,
      "<sql>": 7,
      "</sql>": 8,
      "!": 9,
      "\"": 10,
      "#": 11,
      "$": 12,
      "%": 13,
      "&": 14,
      "'": 15,
      "(": 16,
      ")": 17,
      "*": 18,
      "+": 19,
      ",": 20,
      "-": 21,
      ".": 22,
      "/": 23,
      "0": 24,
      "1": 25,
      "2": 26,
      "3": 27,
      "4": 28,
      "5": 29,
      "6": 30,
      "7": 31,
      "8": 32,
      "9": 33,
      ":": 34,
      ";": 35,
      "<": 36,
      "=": 37,
      ">": 38,
      "?": 39,
      "@": 40,
      "A": 41,
      "B": 42,
      "C": 43,
      "D": 44,
      "E": 45,
      "F": 46,
      "G": 47,
      "H": 48,
      "I": 49,
      "J": 50,
      "K": 51,
      "L": 52,
      "M": 53,
      "N": 54,
      "O": 55,
      "P": 56,
      "Q": 57,
      "R": 58,
      "S": 59,
      "T": 60,
      "U": 61,
      "V": 62,
      "W": 63,
      "X": 64,
      "Y": 65,
      "Z": 66,
      "[": 67,
      "\\": 68,
      "]": 69,
      "^": 70,
      "_": 71,
      "`": 72,
      "a": 73,
      "b": 74,
      "c": 75,
      "d": 76,
      "e": 77,
      "f": 78,
      "g": 79,
      "h": 80,
      "i": 81,
      "j": 82,
      "k": 83,
      "l": 84,
      "m": 85,
      "n": 86,
      "o": 87,
      "p": 88,
      "q": 89,
      "r": 90,
      "s": 91,
      "t": 92,
      "u": 93,
      "v": 94,
      "w": 95,
      "x": 96,
      "y": 97,
      "z": 98,
      "{": 99,
      "|": 100,
      "}": 101,
      "~": 102,
      "¡": 103,
      "¢": 104,
      "£": 105,
      "¤": 106,
      "¥": 107,
      "¦": 108,
      "§": 109,
      "¨": 110,
      "©": 111,
      "ª": 112,
      "«": 113,
      "¬": 114,
      "®": 115,
      "¯": 116,
      "°": 117,
      "±": 118,
      "²": 119,
      "³": 120,
      "´": 121,
      "µ": 122,
      "¶": 123,
      "·": 124,
      "¸": 125,
      "¹": 126,
      "º": 127,
      "»": 128,
      "¼": 129,
      "½": 130,
      "¾": 131,
      "¿": 132,
      "À": 133,
      "Á": 134,
      "Â": 135,
      "Ã": 136,
      "Ä": 137,
      "Å": 138,
      "Æ": 139,
      "Ç": 140,
      "È": 141,
      "É": 142,
      "Ê": 143,
      "Ë": 144,
      "Ì": 145,
      "Í": 146,
      "Î": 147,
      "Ï": 148,
      "Ð": 149,
      "Ñ": 150,
      "Ò": 151,
      "Ó": 152,
      "Ô": 153,
      "Õ": 154,
      "Ö": 155,
      "×": 156,
      "Ø": 157,
      "Ù": 158,
      "Ú": 159,
      "Û": 160,
      "Ü": 161,
      "Ý": 162,
      "Þ": 163,
      "ß": 164,
      "à": 165,
      "á": 166,
      "â": 167,
      "ã": 168,
      "ä": 169,
      "å": 170,
      "æ": 171,
      "ç": 172,
      "è": 173,
      "é": 174,
      "ê": 175,
      "ë": 176,
      "ì": 177,
      "í": 178,
      "î": 179,
      "ï": 180,
      "ð": 181,
      "ñ": 182,
      "ò": 183,
      "ó": 184,
      "ô": 185,
      "õ": 186,
      "ö": 187,
      "÷": 188,
      "ø": 189,
      "ù": 190,
      "ú": 191,
      "û": 192,
      "ü": 193,
      "ý": 194,
      "þ": 195,
      "ÿ": 196,
      "Ā": 197,
      "ā": 198,
      "Ă": 199,
      "ă": 200,
      "Ą": 201,
      "ą": 202,
      "Ć": 203,
      "ć": 204,
      "Ĉ": 205,
      "ĉ": 206,
      "Ċ": 207,
      "ċ": 208,
      "Č": 209,
      "č": 210,
      "Ď": 211,
      "ď": 212,
      "Đ": 213,
      "đ": 214,
      "Ē": 215,
      "ē": 216,
      "Ĕ": 217,
      "ĕ": 218,
      "Ė": 219,
      "ė": 220,
      "Ę": 221,
      "ę": 222,
      "Ě": 223,
      "ě": 224,
      "Ĝ": 225,
      "ĝ": 226,
      "Ğ": 227,
      "ğ": 228,
      "Ġ": 229,
      "ġ": 230,
      "Ģ": 231,
      "ģ": 232,
      "Ĥ": 233,
      "ĥ": 234,
      "Ħ": 235,
      "ħ": 236,
      "Ĩ": 237,
      "ĩ": 238,
      "Ī": 239,
      "ī": 240,
      "Ĭ": 241,
      "ĭ": 242,
      "Į": 243,
      "į": 244,
      "İ": 245,
      "ı": 246,
      "Ĳ": 247,
      "ĳ": 248,
      "Ĵ": 249,
      "ĵ": 250,
      "Ķ": 251,
      "ķ": 252,
      "ĸ": 253,
      "Ĺ": 254,
      "ĺ": 255,
      "Ļ": 256,
      "ļ": 257,
      "Ľ": 258,
      "ľ": 259,
      "Ŀ": 260,
      "ŀ": 261,
      "Ł": 262,
      "ł": 263,
      "Ń": 264,
      "co": 265,
      "um": 266,
      "lum": 267,
      "colum": 268,
      "column": 269,
      "Ġcolumn": 270,
      "TE": 271,
      "Ġt": 272,
      "XT": 273,
      "ĠTE": 274,
      "ĠTEXT": 275,
      "le": 276,
      "ab": 277,
      "Ġtab": 278,
      "Ġtable": 279,
      "RE": 280,
      "><": 281,
      "IN": 282,
      "ER": 283,
      "ĠIN": 284,
      "</": 285,
      "GER": 286,
      "LE": 287,
      "TEGER": 288,
      "REA": 289,
      "ĠINTEGER": 290,
      "he": 291,
      "st": 292,
      "IM": 293,
      "on": 294,
      "ma": 295,
      "qu": 296,
      "os": 297,
      "che": 298,
      "est": 299,
      ");": 300,
      "AB": 301,
      "AR": 302,
      "CREA": 303,
      "EY": 304,
      "KEY": 305,
      "PR": 306,
      "TAB": 307,
      "ion": 308,
      "ql": 309,
      "sche": 310,
      "sql": 311,
      "Ġ(": 312,
      "ĠKEY": 313,
      "ĠPR": 314,
      "ĠTAB": 315,
      "IMAR": 316,
      "quest": 317,
      "CREATE": 318,
      "schema": 319,
      "ĠPRIMAR": 320,
      "ĠTABLE": 321,
      "question": 322,
      "ĠPRIMARY": 323,
      "ERE": 324,
      "ES": 325,
      "CT": 326,
      "RO": 327,
      ";</": 328,
      "CES": 329,
      "ELE": 330,
      "FERE": 331,
      "FRO": 332,
      "NCES": 333,
      "SELE": 334,
      "bos": 335,
      "eos": 336,
      "ĠRE": 337,
      "ĠREA": 338,
      "ĠFRO": 339,
      ");</": 340,
      "FERENCES": 341,
      "SELECT": 342,
      "ĠREFERENCES": 343,
      "ĠREAL": 344,
      "ĠFROM": 345,
      "),": 346,
      "Ġa": 347,
      "10": 348,
      "ed": 349,
      "Ġf": 350,
      "ha": 351,
      "re": 352,
      "Ġw": 353,
      "Ġ=": 354,
      "hi": 355,
      "ve": 356,
      "or": 357,
      "HERE": 358,
      "WHERE": 359,
      "ĠWHERE": 360,
      "Ġthe": 361,
      "Ġ'": 362,
      "pp": 363,
      "Ġe": 364,
      "shi": 365,
      "pped": 366,
      "shipped": 367,
      "Ġwhe": 368,
      "nd": 369,
      "Ġ2": 370,
      "ĠO": 371,
      "Ġ3": 372,
      "hat": 373,
      "li": 374,
      "Ġfor": 375,
      "Ġi": 376,
      "Ġand": 377,
      "IT": 378,
      "LIM": 379,
      "ĠLIM": 380,
      "ĠLIMIT": 381,
      "Ġm": 382,
      "Ġto": 383,
      "Ġ>": 384,
      "it": 385,
      "Ġo": 386,
      "te": 387,
      "ur": 388,
      "an": 389,
      "ll": 390,
      "';</": 391,
      "Ġb": 392,
      "Ġme": 393,
      "Ġli": 394,
      "can": 395,
      "Ġon": 396,
      "ver": 397,
      "ow": 398,
      "Ġ10": 399,
      "Ġ30": 400,
      "ly": 401,
      "Ġis": 402,
      "Ġwhen": 403,
      "Ġonly": 404,
      "el": 405,
      "Ġshipped": 406,
      "ĠOR": 407,
      "Ġma": 408,
      "pe": 409,
      "Ġthat": 410,
      "Ġs": 411,
      "com": 412,
      "pen": 413,
      "tur": 414,
      "retur": 415,
      "return": 416,
      "Ġwhere": 417,
      "ro": 418,
      "Ġwit": 419,
      "Ġwith": 420,
      "how": 421,
      "ple": 422,
      "comple": 423,
      "complete": 424,
      "Ġfro": 425,
      "Ġfrom": 426,
      "Ġall": 427,
      "al": 428,
      "Ġor": 429,
      "what": 430,
      "JO": 431,
      "NER": 432,
      "ĠA": 433,
      "ĠJO": 434,
      "ĠINNER": 435,
      "ĠON": 436,
      "ĠJOIN": 437,
      "ch": 438,
      "Ġtha": 439,
      "Ġthan": 440,
      "show": 441,
      "Ġever": 442,
      "Ġevery": 443,
      "));</": 444,
      "ir": 445,
      "Ġfir": 446,
      "Ġfirst": 447,
      "cel": 448,
      "led": 449,
      "cancel": 450,
      "cancelled": 451,
      "Ġreturn": 452,
      "mit": 453,
      "Ġlimit": 454,
      "Ġha": 455,
      "Ġhave": 456,
      "Ġse": 457,
      "ach": 458,
      "Ġeach": 459,
      "Ġas": 460,
      "in": 461,
      "qual": 462,
      "Ġequal": 463,
      "Ġequals": 464,
      "11": 465,
      "BY": 466,
      "ND": 467,
      "Ġ4": 468,
      "Ġ6": 469,
      "ĠD": 470,
      "ĠBY": 471,
      "ĠAND": 472,
      "ate": 473,
      "ut": 474,
      "Ġg": 475,
      "Ġbut": 476,
      "gi": 477,
      "give": 478,
      "Ġp": 479,
      "list": 480,
      "ong": 481,
      "open": 482,
      "Ġopen": 483,
      "Ġj": 484,
      "Ġin": 485,
      "up": 486,
      "ked": 487,
      "rked": 488,
      "Ġmarked": 489,
      "Ġset": 490,
      "eed": 491,
      "ove": 492,
      "Ġn": 493,
      "Ġour": 494,
      "ust": 495,
      "Ġjust": 496,
      "reate": 497,
      "Ġgreate": 498,
      "Ġgreater": 499,
      "Ġab": 500,
      "Ġabove": 501,
      "(*": 502,
      "CO": 503,
      "NT": 504,
      "UNT": 505,
      "Ġ5": 506,
      "ĠM": 507,
      "Ġcomplete": 508,
      "ĠCO": 509,
      "ĠCOUNT": 510,
      "Ġmat": 511,
      "ull": 512,
      "'s": 513,
      "Ġup": 514,
      "Ġby": 515,
      "'d": 516,
      "ke": 517,
      "Ġlike": 518,
      "Ġneed": 519,
      "ou": 520,
      "you": 521,
      "Ġyou": 522,
      "Ġpull": 523,
      "Ġbel": 524,
      "Ġbelong": 525,
      "DER": 526,
      "Ġcancelled": 527,
      "ESC": 528,
      "ĠORDER": 529,
      "ĠDESC": 530,
      "nt": 531,
      "ghe": 532,
      "Ġhi": 533,
      "ghest": 534,
      "Ġhighest": 535,
      "Ġover": 536,
      "ore": 537,
      "Ġmore": 538,
      "Ġd": 539,
      "Ġ60": 540,
      "Ġof": 541,
      "chi": 542,
      "ng": 543,
      "Ġmatchi": 544,
      "Ġmatching": 545,
      "unt": 546,
      "count": 547,
      "fi": 548,
      "find": 549,
      "AX": 550,
      "GRO": 551,
      "IS": 552,
      "SU": 553,
      "TIN": 554,
      "UP": 555,
      "VG": 556,
      "ĠGRO": 557,
      "ĠSU": 558,
      "ĠAVG": 559,
      "ĠDIS": 560,
      "(*)": 561,
      "(*),": 562,
      "ĠMIN": 563,
      "ĠMAX": 564,
      "TINCT": 565,
      "ĠGROUP": 566,
      "ĠSUM": 567,
      "ĠDISTINCT": 568,
      "ing": 569,
      "us": 570,
      "at": 571,
      "cr": 572,
      "oss": 573,
      "Ġacr": 574,
      "Ġacross": 575,
      "er": 576,
      "Ġre": 577,
      "row": 578,
      "Ġrow": 579,
      "Ġrows": 580,
      "ar": 581,
      "ches": 582,
      "Ġmatches": 583,
      "lus": 584,
      "Ġplus": 585,
      "oin": 586,
      "ated": 587,
      "ts": 588,
      "Ġits": 589,
      "ct": 590,
      "for": 591,
      "bin": 592,
      "combin": 593,
      "ĠI": 594,
      "Ġsee": 595,
      "mong": 596,
      "Ġamong": 597,
      "Ġwhi": 598,
      "Ġwhile": 599,
      "75": 600,
      "90": 601,
      "Ġ75": 602,
      "Ġ90": 603,
      "Ġ20": 604,
      "Ġ100": 605,
      "Ġ40": 606,
      "Ġ50": 607,
      "Ġl": 608,
      "Ġlist": 609,
      "Ġcount": 610,
      "Ġare": 611,
      "Ġdo": 612,
      "Ġreturning": 613,
      "im": 614,
      "imum": 615,
      "Ġlimited": 616,
      "ag": 617,
      "verag": 618,
      "verage": 619,
      "ceed": 620,
      "xceed": 621,
      "Ġexceed": 622,
      "Ġexceeds": 623,
      "se": 624,
      "tal": 625,
      "Ġtotal": 626,
      "join": 627,
      "et": 628,
      "lated": 629,
      "Ġget": 630,
      "Ġrelated": 631,
      "combine": 632,
      "cal": 633,
      "ect": 634,
      "nn": 635,
      "Ġcan": 636,
      "conn": 637,
      "Ġso": 638,
      "connect": 639,
      "Ġdi": 640,
      "hos": 641,
      "Ġthos": 642,
      "Ġthose": 643,
      "der": 644,
      "Ġorder": 645,
      "ort": 646,
      "Ġsort": 647,
      "ged": 648,
      "rr": 649,
      "Ġarr": 650,
      "anged": 651,
      "Ġarranged": 652,
      "whi": 653,
      "which": 654,
      "Ġwe": 655,
      "ber": 656,
      "umber": 657,
      "Ġnumber": 658,
      "lle": 659,
      "malle": 660,
      "Ġsmalle": 661,
      "Ġsmallest": 662,
      "gest": 663,
      "argest": 664,
      "Ġlargest": 665,
      "ny": 666,
      "Ġmany": 667,
      "ad": 668,
      "Ġmin": 669,
      "Ġaverage": 670,
      "lse": 671,
      "Ġelse": 672,
      "Ġmax": 673,
      "cu": 674,
      "late": 675,
      "calcu": 676,
      "calculate": 677,
      "Ġwell": 678,
      "Ġmaximum": 679,
      "Ġminimum": 680,
      "king": 681,
      "nking": 682,
      "Ġlinking": 683,
      "owest": 684,
      "Ġlowest": 685,
      "ci": 686,
      "oci": 687,
      "pull": 688,
      "soci": 689,
      "Ġassoci": 690,
      "Ġassociated": 691,
      "Ġjoin": 692,
      "Ġjoined": 693,
      "roup": 694,
      "stin": 695,
      "Ġdistin": 696,
      "Ġdistinct": 697,
      "ale": 698,
      "ear": 699,
      "Ġapp": 700,
      "Ġsale": 701,
      "Ġappear": 702,
      "ere": 703,
      "ff": 704,
      "Ġdiff": 705,
      "erent": 706,
      "Ġdifferent": 707,
      "ak": 708,
      "bre": 709,
      "own": 710,
      "Ġdown": 711,
      "break": 712,
      "Ġthere": 713,
      "Ġmean": 714,
      "iqu": 715,
      "niqu": 716,
      "uniqu": 717,
      "Ġuniqu": 718,
      "Ġunique": 719,
      "uch": 720,
      "Ġcombin": 721,
      "Ġmuch": 722,
      "Ġcombined": 723,
      "es": 724,
      "ical": 725,
      "pical": 726,
      "ypical": 727,
      "Ġtypical": 728,
      "Ġdoes": 729,
      "sum": 730,
      "add": 731,
      "average": 732,
      "Ġhe": 733,
      "adcount": 734,
      "Ġheadcount": 735,
      "out": 736,
      "peat": 737,
      "Ġwithout": 738,
      "Ġrepeat": 739,
      "Ġrepeats": 740,
      "group": 741,
      "Ġthem": 742,
      "pre": 743,
      "nted": 744,
      "Ġrepre": 745,
      "sented": 746,
      "Ġrepresented": 747,
      "Ġus": 748,
      "Ġused": 749,
      "par": 750,
      "Ġsepar": 751,
      "ately": 752,
      "Ġseparately": 753,
      "ell": 754,
      "Ġhow": 755,
      "Ġtell": 756,
      "cate": 757,
      "move": 758,
      "remove": 759,
      "licate": 760,
      "uplicate": 761,
      "Ġduplicate": 762,
      "Ġlisting": 763,
      "tell": 764,
      "Ġsales": 765,
      "Ġcounts": 766,
      "Ġsum": 767,
      "Ġgroup": 768,
      "Ġgrouped": 769,
      "vg": 770,
      "Ġavg": 771
    },
    "merges": [
      [
        "c",
        "o"
      ],
      [
        "u",
        "m"
      ],
      [
        "l",
        "um"
      ],
      [
        "co",
        "lum"
      ],
      [
        "colum",
        "n"
      ],
      [
        "Ġ",
        "column"
      ],
      [
        "T",
        "E"
      ],
      [
        "Ġ",
        "t"
      ],
      [
        "X",
        "T"
      ],
      [
        "Ġ",
        "TE"
      ],
      [
        "ĠTE",
        "XT"
      ],
      [
        "l",
        "e"
      ],
      [
        "a",
        "b"
      ],
      [
        "Ġt",
        "ab"
      ],
      [
        "Ġtab",
        "le"
      ],
      [
        "R",
        "E"
      ],
      [
        ">",
        "<"
      ],
      [
        "I",
        "N"
      ],
      [
        "E",
        "R"
      ],
      [
        "Ġ",
        "IN"
      ],
      [
        "<",
        "/"
      ],
      [
        "G",
        "ER"
      ],
      [
        "L",
        "E"
      ],
      [
        "TE",
        "GER"
      ],
      [
        "RE",
        "A"
      ],
      [
        "ĠIN",
        "TEGER"
      ],
      [
        "h",
        "e"
      ],
      [
        "s",
        "t"
      ],
      [
        "I",
        "M"
      ],
      [
        "o",
        "n"
      ],
      [
        "m",
        "a"
      ],
      [
        "q",
        "u"
      ],
      [
        "o",
        "s"
      ],
      [
        "c",
        "he"
      ],
      [
        "e",
        "st"
      ],
      [
        ")",
        ";"
      ],
      [
        "A",
        "B"
      ],
      [
        "A",
        "R"
      ],
      [
        "C",
        "REA"
      ],
      [
        "E",
        "Y"
      ],
      [
        "K",
        "EY"
      ],
      [
        "P",
        "R"
      ],
      [
        "T",
        "AB"
      ],
      [
        "i",
        "on"
      ],
      [
        "q",
        "l"
      ],
      [
        "s",
        "che"
      ],
      [
        "s",
        "ql"
      ],
      [
        "Ġ",
        "("
      ],
      [
        "Ġ",
        "KEY"
      ],
      [
        "Ġ",
        "PR"
      ],
      [
        "Ġ",
        "TAB"
      ],
      [
        "IM",
        "AR"
      ],
      [
        "qu",
        "est"
      ],
      [
        "CREA",
        "TE"
      ],
      [
        "sche",
        "ma"
      ],
      [
        "ĠPR",
        "IMAR"
      ],
      [
        "ĠTAB",
        "LE"
      ],
      [
        "quest",
        "ion"
      ],
      [
        "ĠPRIMAR",
        "Y"
      ],
      [
        "E",
        "RE"
      ],
      [
        "E",
        "S"
      ],
      [
        "C",
        "T"
      ],
      [
        "R",
        "O"
      ],
      [
        ";",
        "</"
      ],
      [
        "C",
        "ES"
      ],
      [
        "E",
        "LE"
      ],
      [
        "F",
        "ERE"
      ],
      [
        "F",
        "RO"
      ],
      [
        "N",
        "CES"
      ],
      [
        "S",
        "ELE"
      ],
      [
        "b",
        "os"
      ],
      [
        "e",
        "os"
      ],
      [
        "Ġ",
        "RE"
      ],
      [
        "Ġ",
        "REA"
      ],
      [
        "Ġ",
        "FRO"
      ],
      [
        ");",
        "</"
      ],
      [
        "FERE",
        "NCES"
      ],
      [
        "SELE",
        "CT"
      ],
      [
        "ĠRE",
        "FERENCES"
      ],
      [
        "ĠREA",
        "L"
      ],
      [
        "ĠFRO",
        "M"
      ],
      [
        ")",
        ","
      ],
      [
        "Ġ",
        "a"
      ],
      [
        "1",
        "0"
      ],
      [
        "e",
        "d"
      ],
      [
        "Ġ",
        "f"
      ],
      [
        "h",
        "a"
      ],
      [
        "r",
        "e"
      ],
      [
        "Ġ",
        "w"
      ],
      [
        "Ġ",
        "="
      ],
      [
        "h",
        "i"
      ],
      [
        "v",
        "e"
      ],
      [
        "o",
        "r"
      ],
      [
        "H",
        "ERE"
      ],
      [
        "W",
        "HERE"
      ],
      [
        "Ġ",
        "WHERE"
      ],
      [
        "Ġt",
        "he"
      ],
      [
        "Ġ",
        "'"
      ],
      [
        "p",
        "p"
      ],
      [
        "Ġ",
        "e"
      ],
      [
        "s",
        "hi"
      ],
      [
        "pp",
        "ed"
      ],
      [
        "shi",
        "pped"
      ],
      [
        "Ġw",
        "he"
      ],
      [
        "n",
        "d"
      ],
      [
        "Ġ",
        "2"
      ],
      [
        "Ġ",
        "O"
      ],
      [
        "Ġ",
        "3"
      ],
      [
        "ha",
        "t"
      ],
      [
        "l",
        "i"
      ],
      [
        "Ġf",
        "or"
      ],
      [
        "Ġ",
        "i"
      ],
      [
        "Ġa",
        "nd"
      ],
      [
        "I",
        "T"
      ],
      [
        "L",
        "IM"
      ],
      [
        "Ġ",
        "LIM"
      ],
      [
        "ĠLIM",
        "IT"
      ],
      [
        "Ġ",
        "m"
      ],
      [
        "Ġt",
        "o"
      ],
      [
        "Ġ",
        ">"
      ],
      [
        "i",
        "t"
      ],
      [
        "Ġ",
        "o"
      ],
      [
        "t",
        "e"
      ],
      [
        "u",
        "r"
      ],
      [
        "a",
        "n"
      ],
      [
        "l",
        "l"
      ],
      [
        "'",
        ";</"
      ],
      [
        "Ġ",
        "b"
      ],
      [
        "Ġm",
        "e"
      ],
      [
        "Ġ",
        "li"
      ],
      [
        "c",
        "an"
      ],
      [
        "Ġ",
        "on"
      ],
      [
        "ve",
        "r"
      ],
      [
        "o",
        "w"
      ],
      [
        "Ġ",
        "10"
      ],
      [
        "Ġ3",
        "0"
      ],
      [
        "l",
        "y"
      ],
      [
        "Ġi",
        "s"
      ],
      [
        "Ġwhe",
        "n"
      ],
      [
        "Ġon",
        "ly"
      ],
      [
        "e",
        "l"
      ],
      [
        "Ġ",
        "shipped"
      ],
      [
        "ĠO",
        "R"
      ],
      [
        "Ġ",
        "ma"
      ],
      [
        "p",
        "e"
      ],
      [
        "Ġt",
        "hat"
      ],
      [
        "Ġ",
        "s"
      ],
      [
        "co",
        "m"
      ],
      [
        "pe",
        "n"
      ],
      [
        "t",
        "ur"
      ],
      [
        "re",
        "tur"
      ],
      [
        "retur",
        "n"
      ],
      [
        "Ġwhe",
        "re"
      ],
      [
        "r",
        "o"
      ],
      [
        "Ġw",
        "it"
      ],
      [
        "Ġwit",
        "h"
      ],
      [
        "h",
        "ow"
      ],
      [
        "p",
        "le"
      ],
      [
        "com",
        "ple"
      ],
      [
        "comple",
        "te"
      ],
      [
        "Ġf",
        "ro"
      ],
      [
        "Ġfro",
        "m"
      ],
      [
        "Ġa",
        "ll"
      ],
      [
        "a",
        "l"
      ],
      [
        "Ġ",
        "or"
      ],
      [
        "w",
        "hat"
      ],
      [
        "J",
        "O"
      ],
      [
        "N",
        "ER"
      ],
      [
        "Ġ",
        "A"
      ],
      [
        "Ġ",
        "JO"
      ],
      [
        "ĠIN",
        "NER"
      ],
      [
        "ĠO",
        "N"
      ],
      [
        "ĠJO",
        "IN"
      ],
      [
        "c",
        "h"
      ],
      [
        "Ġt",
        "ha"
      ],
      [
        "Ġtha",
        "n"
      ],
      [
        "s",
        "how"
      ],
      [
        "Ġe",
        "ver"
      ],
      [
        "Ġever",
        "y"
      ],
      [
        ")",
        ");</"
      ],
      [
        "i",
        "r"
      ],
      [
        "Ġf",
        "ir"
      ],
      [
        "Ġfir",
        "st"
      ],
      [
        "c",
        "el"
      ],
      [
        "le",
        "d"
      ],
      [
        "can",
        "cel"
      ],
      [
        "cancel",
        "led"
      ],
      [
        "Ġ",
        "return"
      ],
      [
        "m",
        "it"
      ],
      [
        "Ġli",
        "mit"
      ],
      [
        "Ġ",
        "ha"
      ],
      [
        "Ġha",
        "ve"
      ],
      [
        "Ġs",
        "e"
      ],
      [
        "a",
        "ch"
      ],
      [
        "Ġe",
        "ach"
      ],
      [
        "Ġa",
        "s"
      ],
      [
        "i",
        "n"
      ],
      [
        "qu",
        "al"
      ],
      [
        "Ġe",
        "qual"
      ],
      [
        "Ġequal",
        "s"
      ],
      [
        "1",
        "1"
      ],
      [
        "B",
        "Y"
      ],
      [
        "N",
        "D"
      ],
      [
        "Ġ",
        "4"
      ],
      [
        "Ġ",
        "6"
      ],
      [
        "Ġ",
        "D"
      ],
      [
        "Ġ",
        "BY"
      ],
      [
        "ĠA",
        "ND"
      ],
      [
        "a",
        "te"
      ],
      [
        "u",
        "t"
      ],
      [
        "Ġ",
        "g"
      ],
      [
        "Ġb",
        "ut"
      ],
      [
        "g",
        "i"
      ],
      [
        "gi",
        "ve"
      ],
      [
        "Ġ",
        "p"
      ],
      [
        "li",
        "st"
      ],
      [
        "on",
        "g"
      ],
      [
        "o",
        "pen"
      ],
      [
        "Ġo",
        "pen"
      ],
      [
        "Ġ",
        "j"
      ],
      [
        "Ġi",
        "n"
      ],
      [
        "u",
        "p"
      ],
      [
        "k",
        "ed"
      ],
      [
        "r",
        "ked"
      ],
      [
        "Ġma",
        "rked"
      ],
      [
        "Ġse",
        "t"
      ],
      [
        "e",
        "ed"
      ],
      [
        "o",
        "ve"
      ],
      [
        "Ġ",
        "n"
      ],
      [
        "Ġo",
        "ur"
      ],
      [
        "u",
        "st"
      ],
      [
        "Ġj",
        "ust"
      ],
      [
        "re",
        "ate"
      ],
      [
        "Ġg",
        "reate"
      ],
      [
        "Ġgreate",
        "r"
      ],
      [
        "Ġ",
        "ab"
      ],
      [
        "Ġab",
        "ove"
      ],
      [
        "(",
        "*"
      ],
      [
        "C",
        "O"
      ],
      [
        "N",
        "T"
      ],
      [
        "U",
        "NT"
      ],
      [
        "Ġ",
        "5"
      ],
      [
        "Ġ",
        "M"
      ],
      [
        "Ġ",
        "complete"
      ],
      [
        "Ġ",
        "CO"
      ],
      [
        "ĠCO",
        "UNT"
      ],
      [
        "Ġma",
        "t"
      ],
      [
        "u",
        "ll"
      ],
      [
        "'",
        "s"
      ],
      [
        "Ġ",
        "up"
      ],
      [
        "Ġb",
        "y"
      ],
      [
        "'",
        "d"
      ],
      [
        "k",
        "e"
      ],
      [
        "Ġli",
        "ke"
      ],
      [
        "Ġn",
        "eed"
      ],
      [
        "o",
        "u"
      ],
      [
        "y",
        "ou"
      ],
      [
        "Ġ",
        "you"
      ],
      [
        "Ġp",
        "ull"
      ],
      [
        "Ġb",
        "el"
      ],
      [
        "Ġbel",
        "ong"
      ],
      [
        "D",
        "ER"
      ],
      [
        "Ġ",
        "cancelled"
      ],
      [
        "ES",
        "C"
      ],
      [
        "ĠOR",
        "DER"
      ],
      [
        "ĠD",
        "ESC"
      ],
      [
        "n",
        "t"
      ],
      [
        "g",
        "he"
      ],
      [
        "Ġ",
        "hi"
      ],
      [
        "ghe",
        "st"
      ],
      [
        "Ġhi",
        "ghest"
      ],
      [
        "Ġo",
        "ver"
      ],
      [
        "o",
        "re"
      ],
      [
        "Ġm",
        "ore"
      ],
      [
        "Ġ",
        "d"
      ],
      [
        "Ġ6",
        "0"
      ],
      [
        "Ġo",
        "f"
      ],
      [
        "c",
        "hi"
      ],
      [
        "n",
        "g"
      ],
      [
        "Ġmat",
        "chi"
      ],
      [
        "Ġmatchi",
        "ng"
      ],
      [
        "u",
        "nt"
      ],
      [
        "co",
        "unt"
      ],
      [
        "f",
        "i"
      ],
      [
        "fi",
        "nd"
      ],
      [
        "A",
        "X"
      ],
      [
        "G",
        "RO"
      ],
      [
        "I",
        "S"
      ],
      [
        "S",
        "U"
      ],
      [
        "T",
        "IN"
      ],
      [
        "U",
        "P"
      ],
      [
        "V",
        "G"
      ],
      [
        "Ġ",
        "GRO"
      ],
      [
        "Ġ",
        "SU"
      ],
      [
        "ĠA",
        "VG"
      ],
      [
        "ĠD",
        "IS"
      ],
      [
        "(*",
        ")"
      ],
      [
        "(*",
        "),"
      ],
      [
        "ĠM",
        "IN"
      ],
      [
        "ĠM",
        "AX"
      ],
      [
        "TIN",
        "CT"
      ],
      [
        "ĠGRO",
        "UP"
      ],
      [
        "ĠSU",
        "M"
      ],
      [
        "ĠDIS",
        "TINCT"
      ],
      [
        "in",
        "g"
      ],
      [
        "u",
        "s"
      ],
      [
        "a",
        "t"
      ],
      [
        "c",
        "r"
      ],
      [
        "os",
        "s"
      ],
      [
        "Ġa",
        "cr"
      ],
      [
        "Ġacr",
        "oss"
      ],
      [
        "e",
        "r"
      ],
      [
        "Ġ",
        "re"
      ],
      [
        "r",
        "ow"
      ],
      [
        "Ġ",
        "row"
      ],
      [
        "Ġrow",
        "s"
      ],
      [
        "a",
        "r"
      ],
      [
        "che",
        "s"
      ],
      [
        "Ġmat",
        "ches"
      ],
      [
        "l",
        "us"
      ],
      [
        "Ġp",
        "lus"
      ],
      [
        "o",
        "in"
      ],
      [
        "at",
        "ed"
      ],
      [
        "t",
        "s"
      ],
      [
        "Ġi",
        "ts"
      ],
      [
        "c",
        "t"
      ],
      [
        "f",
        "or"
      ],
      [
        "b",
        "in"
      ],
      [
        "com",
        "bin"
      ],
      [
        "Ġ",
        "I"
      ],
      [
        "Ġse",
        "e"
      ],
      [
        "m",
        "ong"
      ],
      [
        "Ġa",
        "mong"
      ],
      [
        "Ġw",
        "hi"
      ],
      [
        "Ġwhi",
        "le"
      ],
      [
        "7",
        "5"
      ],
      [
        "9",
        "0"
      ],
      [
        "Ġ",
        "75"
      ],
      [
        "Ġ",
        "90"
      ],
      [
        "Ġ2",
        "0"
      ],
      [
        "Ġ10",
        "0"
      ],
      [
        "Ġ4",
        "0"
      ],
      [
        "Ġ5",
        "0"
      ],
      [
        "Ġ",
        "l"
      ],
      [
        "Ġli",
        "st"
      ],
      [
        "Ġ",
        "count"
      ],
      [
        "Ġa",
        "re"
      ],
      [
        "Ġd",
        "o"
      ],
      [
        "Ġreturn",
        "ing"
      ],
      [
        "i",
        "m"
      ],
      [
        "im",
        "um"
      ],
      [
        "Ġlimit",
        "ed"
      ],
      [
        "a",
        "g"
      ],
      [
        "ver",
        "ag"
      ],
      [
        "verag",
        "e"
      ],
      [
        "c",
        "eed"
      ],
      [
        "x",
        "ceed"
      ],
      [
        "Ġe",
        "xceed"
      ],
      [
        "Ġexceed",
        "s"
      ],
      [
        "s",
        "e"
      ],
      [
        "t",
        "al"
      ],
      [
        "Ġto",
        "tal"
      ],
      [
        "j",
        "oin"
      ],
      [
        "e",
        "t"
      ],
      [
        "l",
        "ated"
      ],
      [
        "Ġg",
        "et"
      ],
      [
        "Ġre",
        "lated"
      ],
      [
        "combin",
        "e"
      ],
      [
        "c",
        "al"
      ],
      [
        "e",
        "ct"
      ],
      [
        "n",
        "n"
      ],
      [
        "Ġ",
        "can"
      ],
      [
        "co",
        "nn"
      ],
      [
        "Ġs",
        "o"
      ],
      [
        "conn",
        "ect"
      ],
      [
        "Ġd",
        "i"
      ],
      [
        "h",
        "os"
      ],
      [
        "Ġt",
        "hos"
      ],
      [
        "Ġthos",
        "e"
      ],
      [
        "d",
        "er"
      ],
      [
        "Ġor",
        "der"
      ],
      [
        "or",
        "t"
      ],
      [
        "Ġs",
        "ort"
      ],
      [
        "g",
        "ed"
      ],
      [
        "r",
        "r"
      ],
      [
        "Ġa",
        "rr"
      ],
      [
        "an",
        "ged"
      ],
      [
        "Ġarr",
        "anged"
      ],
      [
        "w",
        "hi"
      ],
      [
        "whi",
        "ch"
      ],
      [
        "Ġw",
        "e"
      ],
      [
        "b",
        "er"
      ],
      [
        "um",
        "ber"
      ],
      [
        "Ġn",
        "umber"
      ],
      [
        "l",
        "le"
      ],
      [
        "ma",
        "lle"
      ],
      [
        "Ġs",
        "malle"
      ],
      [
        "Ġsmalle",
        "st"
      ],
      [
        "g",
        "est"
      ],
      [
        "ar",
        "gest"
      ],
      [
        "Ġl",
        "argest"
      ],
      [
        "n",
        "y"
      ],
      [
        "Ġma",
        "ny"
      ],
      [
        "a",
        "d"
      ],
      [
        "Ġm",
        "in"
      ],
      [
        "Ġa",
        "verage"
      ],
      [
        "l",
        "se"
      ],
      [
        "Ġe",
        "lse"
      ],
      [
        "Ġma",
        "x"
      ],
      [
        "c",
        "u"
      ],
      [
        "l",
        "ate"
      ],
      [
        "cal",
        "cu"
      ],
      [
        "calcu",
        "late"
      ],
      [
        "Ġwe",
        "ll"
      ],
      [
        "Ġmax",
        "imum"
      ],
      [
        "Ġmin",
        "imum"
      ],
      [
        "k",
        "ing"
      ],
      [
        "n",
        "king"
      ],
      [
        "Ġli",
        "nking"
      ],
      [
        "ow",
        "est"
      ],
      [
        "Ġl",
        "owest"
      ],
      [
        "c",
        "i"
      ],
      [
        "o",
        "ci"
      ],
      [
        "p",
        "ull"
      ],
      [
        "s",
        "oci"
      ],
      [
        "Ġas",
        "soci"
      ],
      [
        "Ġassoci",
        "ated"
      ],
      [
        "Ġj",
        "oin"
      ],
      [
        "Ġjoin",
        "ed"
      ],
      [
        "ro",
        "up"
      ],
      [
        "st",
        "in"
      ],
      [
        "Ġdi",
        "stin"
      ],
      [
        "Ġdistin",
        "ct"
      ],
      [
        "a",
        "le"
      ],
      [
        "e",
        "ar"
      ],
      [
        "Ġa",
        "pp"
      ],
      [
        "Ġs",
        "ale"
      ],
      [
        "Ġapp",
        "ear"
      ],
      [
        "e",
        "re"
      ],
      [
        "f",
        "f"
      ],
      [
        "Ġdi",
        "ff"
      ],
      [
        "ere",
        "nt"
      ],
      [
        "Ġdiff",
        "erent"
      ],
      [
        "a",
        "k"
      ],
      [
        "b",
        "re"
      ],
      [
        "ow",
        "n"
      ],
      [
        "Ġd",
        "own"
      ],
      [
        "bre",
        "ak"
      ],
      [
        "Ġthe",
        "re"
      ],
      [
        "Ġme",
        "an"
      ],
      [
        "i",
        "qu"
      ],
      [
        "n",
        "iqu"
      ],
      [
        "u",
        "niqu"
      ],
      [
        "Ġ",
        "uniqu"
      ],
      [
        "Ġuniqu",
        "e"
      ],
      [
        "u",
        "ch"
      ],
      [
        "Ġ",
        "combin"
      ],
      [
        "Ġm",
        "uch"
      ],
      [
        "Ġcombin",
        "ed"
      ],
      [
        "e",
        "s"
      ],
      [
        "i",
        "cal"
      ],
      [
        "p",
        "ical"
      ],
      [
        "y",
        "pical"
      ],
      [
        "Ġt",
        "ypical"
      ],
      [
        "Ġdo",
        "es"
      ],
      [
        "s",
        "um"
      ],
      [
        "ad",
        "d"
      ],
      [
        "a",
        "verage"
      ],
      [
        "Ġ",
        "he"
      ],
      [
        "ad",
        "count"
      ],
      [
        "Ġhe",
        "adcount"
      ],
      [
        "o",
        "ut"
      ],
      [
        "pe",
        "at"
      ],
      [
        "Ġwith",
        "out"
      ],
      [
        "Ġre",
        "peat"
      ],
      [
        "Ġrepeat",
        "s"
      ],
      [
        "g",
        "roup"
      ],
      [
        "Ġthe",
        "m"
      ],
      [
        "p",
        "re"
      ],
      [
        "nt",
        "ed"
      ],
      [
        "Ġre",
        "pre"
      ],
      [
        "se",
        "nted"
      ],
      [
        "Ġrepre",
        "sented"
      ],
      [
        "Ġ",
        "us"
      ],
      [
        "Ġus",
        "ed"
      ],
      [
        "p",
        "ar"
      ],
      [
        "Ġse",
        "par"
      ],
      [
        "ate",
        "ly"
      ],
      [
        "Ġsepar",
        "ately"
      ],
      [
        "e",
        "ll"
      ],
      [
        "Ġ",
        "how"
      ],
      [
        "Ġt",
        "ell"
      ],
      [
        "c",
        "ate"
      ],
      [
        "m",
        "ove"
      ],
      [
        "re",
        "move"
      ],
      [
        "li",
        "cate"
      ],
      [
        "up",
        "licate"
      ],
      [
        "Ġd",
        "uplicate"
      ],
      [
        "Ġlist",
        "ing"
      ],
      [
        "te",
        "ll"
      ],
      [
        "Ġsale",
        "s"
      ],
      [
        "Ġcount",
        "s"
      ],
      [
        "Ġs",
        "um"
      ],
      [
        "Ġg",
        "roup"
      ],
      [
        "Ġgroup",
        "ed"
      ],
      [
        "v",
        "g"
      ],
      [
        "Ġa",
        "vg"
      ]
    ]
  }
}