{
  "version": "1.0",
  "truncation": null,
  "padding": null,
  "added_tokens": [
    {
      "id": 0,
      "content": "<pad>",
      "single_word": false,
      "lstrip": false,
      "rstrip": false,
      "normalized": false,
      "special": true
    },
    {
      "id": 1,
      "content": "<bos>",
      "single_word": false,
      "lstrip": false,
      "rstrip": false,
      "normalized": false,
      "special": true
    },
    {
      "id": 2,
      "content": "<eos>",
      "single_word": false,
      "lstrip": false,
      "rstrip": false,
      "normalized": false,
      "special": true
    },
    {
      "id": 3,
      "content": "<schema>",
      "single_word": false,
      "lstrip": false,
      "rstrip": false,
      "normalized": false,
      "special": true
    },
    {
      "id": 4,
      "content": "</schema>",
      "single_word": false,
      "lstrip": false,
      "rstrip": false,
      "normalized": false,
      "special": true
    },
    {
      "id": 5,
      "content": "<question>",
      "single_word": false,
      "lstrip": false,
      "rstrip": false,
      "normalized": false,
      "special": true
    },
    {
      "id": 6,
      "content": "</question>",
      "single_word": false,
      "lstrip": false,
      "rstrip": false,
      "normalized": false,
      "special": true
    },
    {
      "id": 7,
      "content": "<sql>",
      "single_word": false,
      "lstrip": false,
      "rstrip": false,
      "normalized": false,
      "special": true
    },
    {
      "id": 8,
      "content": "</sql>",
      "single_word": false,
      "lstrip": false,
      "rstrip": false,
      "normalized": false,
      "special": true
    }
  ],
  "normalizer": null,
  "pre_tokenizer": {
    "type": "ByteLevel",
    "add_prefix_space": false,
    "trim_offsets": true,
    "use_regex": true
  },
  "post_processor": null,
  "decoder": {
    "type": "ByteLevel",
    "add_prefix_space": true,
    "trim_offsets": true,
    "use_regex": true
  },
  "model": {
    "type": "BPE",
    "dropout": null,
    "unk_token": null,
    "continuing_subword_prefix": null,
    "end_of_word_suffix": null,
    "fuse_unk": false,
    "byte_fallback": false,
    "ignore_merges": false,
    "vocab": {
      "<pad>": 0,
      "<bos>": 1,
      "<eos>": 2,
      "<schema>": 3,
      "</schema>": 4,
      "<question>": 5,
      "</question>": 6,
      "<sql>": 7,
      "</sql>": 8,
      "!": 9,
      "\"": 10,
      "#": 11,
      "$": 12,
      "%": 13,
      "&": 14,
      "'": 15,
      "(": 16,
      ")": 17,
      "*": 18,
      "+": 19,
      ",": 20,
      "-": 21,
      ".": 22,
      "/": 23,
      "0": 24,
      "1": 25,
      "2": 26,
      "3": 27,
      "4": 28,
      "5": 29,
      "6": 30,
      "7": 31,
      "8": 32,
      "9": 33,
      ":": 34,
      ";": 35,
      "<": 36,
      "=": 37,
      ">": 38,
      "?": 39,
      "@": 40,
      "A": 41,
      "B": 42,
      "C": 43,
      "D": 44,
      "E": 45,
      "F": 46,
      "G": 47,
      "H": 48,
      "I": 49,
      "J": 50,
      "K": 51,
      "L": 52,
      "M": 53,
      "N": 54,
      "O": 55,
      "P": 56,
      "Q": 57,
      "R": 58,
      "S": 59,
      "T": 60,
      "U": 61,
      "V": 62,
      "W": 63,
      "X": 64,
      "Y": 65,
      "Z": 66,
      "[": 67,
      "\\": 68,
      "]": 69,
      "^": 70,
      "_": 71,
      "`": 72,
      "a": 73,
      "b": 74,
      "c": 75,
      "d": 76,
      "e": 77,
      "f": 78,
      "g": 79,
      "h": 80,
      "i": 81,
      "j": 82,
      "k": 83,
      "l": 84,
      "m": 85,
      "n": 86,
      "o": 87,
      "p": 88,
      "q": 89,
      "r": 90,
      "s": 91,
      "t": 92,
      "u": 93,
      "v": 94,
      "w": 95,
      "x": 96,
      "y": 97,
      "z": 98,
      "{": 99,
      "|": 100,
      "}": 101,
      "~": 102,
      "¡": 103,
      "¢": 104,
      "£": 105,
      "¤": 106,
      "¥": 107,
      "¦": 108,
      "§": 109,
      "¨": 110,
      "©": 111,
      "ª": 112,
      "«": 113,
      "¬": 114,
      "®": 115,
      "¯": 116,
      "°": 117,
      "±": 118,
      "²": 119,
      "³": 120,
      "´": 121,
      "µ": 122,
      "¶": 123,
      "·": 124,
      "¸": 125,
      "¹": 126,
      "º": 127,
      "»": 128,
      "¼": 129,
      "½": 130,
      "¾": 131,
      "¿": 132,
      "À": 133,
      "Á": 134,
      "Â": 135,
      "Ã": 136,
      "Ä": 137,
      "Å": 138,
      "Æ": 139,
      "Ç": 140,
      "È": 141,
      "É": 142,
      "Ê": 143,
      "Ë": 144,
      "Ì": 145,
      "Í": 146,
      "Î": 147,
      "Ï": 148,
      "Ð": 149,
      "Ñ": 150,
      "Ò": 151,
      "Ó": 152,
      "Ô": 153,
      "Õ": 154,
      "Ö": 155,
      "×": 156,
      "Ø": 157,
      "Ù": 158,
      "Ú": 159,
      "Û": 160,
      "Ü": 161,
      "Ý": 162,
      "Þ": 163,
      "ß": 164,
      "à": 165,
      "á": 166,
      "â": 167,
      "ã": 168,
      "ä": 169,
      "å": 170,
      "æ": 171,
      "ç": 172,
      "è": 173,
      "é": 174,
      "ê": 175,
      "ë": 176,
      "ì": 177,
      "í": 178,
      "î": 179,
      "ï": 180,
      "ð": 181,
      "ñ": 182,
      "ò": 183,
      "ó": 184,
      "ô": 185,
      "õ": 186,
      "ö": 187,
      "÷": 188,
      "ø": 189,
      "ù": 190,
      "ú": 191,
      "û": 192,
      "ü": 193,
      "ý": 194,
      "þ": 195,
      "ÿ": 196,
      "Ā": 197,
      "ā": 198,
      "Ă": 199,
      "ă": 200,
      "Ą": 201,
      "ą": 202,
      "Ć": 203,
      "ć": 204,
      "Ĉ": 205,
      "ĉ": 206,
      "Ċ": 207,
      "ċ": 208,
      "Č": 209,
      "č": 210,
      "Ď": 211,
      "ď": 212,
      "Đ": 213,
      "đ": 214,
      "Ē": 215,
      "ē": 216,
      "Ĕ": 217,
      "ĕ": 218,
      "Ė": 219,
      "ė": 220,
      "Ę": 221,
      "ę": 222,
      "Ě": 223,
      "ě": 224,
      "Ĝ": 225,
      "ĝ": 226,
      "Ğ": 227,
      "ğ": 228,
      "Ġ": 229,
      "ġ": 230,
      "Ģ": 231,
      "ģ": 232,
      "Ĥ": 233,
      "ĥ": 234,
      "Ħ": 235,
      "ħ": 236,
      "Ĩ": 237,
      "ĩ": 238,
      "Ī": 239,
      "ī": 240,
      "Ĭ": 241,
      "ĭ": 242,
      "Į": 243,
      "į": 244,
      "İ": 245,
      "ı": 246,
      "Ĳ": 247,
      "ĳ": 248,
      "Ĵ": 249,
      "ĵ": 250,
      "Ķ": 251,
      "ķ": 252,
      "ĸ": 253,
      "Ĺ": 254,
      "ĺ": 255,
      "Ļ": 256,
      "ļ": 257,
      "Ľ": 258,
      "ľ": 259,
      "Ŀ": 260,
      "ŀ": 261,
      "Ł": 262,
      "ł": 263,
      "Ń": 264,
      "co": 265,
      "um": 266,
      "lum": 267,
      "colum": 268,
      "column": 269,
      "Ġcolumn": 270,
      "TE": 271,
      "XT": 272,
      "ĠTE": 273,
      "ĠTEXT": 274,
      "Ġt": 275,
      "le": 276,
      "ab": 277,
      "Ġtab": 278,
      "Ġtable": 279,
      "RE": 280,
      "><": 281,
      "IN": 282,
      "ER": 283,
      "ĠIN": 284,
      "</": 285,
      "GER": 286,
      "LE": 287,
      "TEGER": 288,
      "REA": 289,
      "ĠINTEGER": 290,
      "he": 291,
      "st": 292,
      "on": 293,
      "ma": 294,
      "IM": 295,
      "qu": 296,
      "os": 297,
      "che": 298,
      "est": 299,
      "ion": 300,
      ");": 301,
      "AB": 302,
      "AR": 303,
      "CREA": 304,
      "EY": 305,
      "KEY": 306,
      "PR": 307,
      "TAB": 308,
      "ql": 309,
      "sche": 310,
      "sql": 311,
      "Ġ(": 312,
      "ĠKEY": 313,
      "ĠPR": 314,
      "ĠTAB": 315,
      "IMAR": 316,
      "quest": 317,
      "CREATE": 318,
      "schema": 319,
      "ĠPRIMAR": 320,
      "ĠTABLE": 321,
      "question": 322,
      "ĠPRIMARY": 323,
      "ERE": 324,
      "CT": 325,
      "ES": 326,
      "RO": 327,
      ";</": 328,
      "CES": 329,
      "ELE": 330,
      "FERE": 331,
      "FRO": 332,
      "NCES": 333,
      "SELE": 334,
      "bos": 335,
      "eos": 336,
      "ĠRE": 337,
      "ĠREA": 338,
      "ĠFRO": 339,
      ");</": 340,
      "FERENCES": 341,
      "SELECT": 342,
      "ĠREFERENCES": 343,
      "ĠREAL": 344,
      "ĠFROM": 345,
      "Ġa": 346,
      "),": 347,
      "re": 348,
      "Ġw": 349,
      "ha": 350,
      "ve": 351,
      "10": 352,
      "Ġf": 353,
      "ed": 354,
      "Ġthe": 355,
      "HERE": 356,
      "WHERE": 357,
      "ĠWHERE": 358,
      "nd": 359,
      "or": 360,
      "hi": 361,
      "Ġand": 362,
      "Ġe": 363,
      "Ġ=": 364,
      "Ġwhe": 365,
      "Ġ>": 366,
      "Ġm": 367,
      "Ġi": 368,
      "Ġ3": 369,
      "Ġtha": 370,
      "Ġs": 371,
      "Ġfor": 372,
      "Ġo": 373,
      "pp": 374,
      "Ġ'": 375,
      "hipp": 376,
      "hipped": 377,
      "ll": 378,
      "ver": 379,
      "te": 380,
      "Ġ4": 381,
      "Ġme": 382,
      "ow": 383,
      "it": 384,
      "li": 385,
      "ĠO": 386,
      "Ġ30": 387,
      "ur": 388,
      "an": 389,
      "Ġwhen": 390,
      "Ġto": 391,
      "Ġb": 392,
      "';</": 393,
      "ch": 394,
      "Ġ10": 395,
      "Ġis": 396,
      "Ġon": 397,
      "Ġwit": 398,
      "Ġwith": 399,
      "));</": 400,
      "Ġwhere": 401,
      "how": 402,
      "Ġthan": 403,
      "IT": 404,
      "LIM": 405,
      "Ġ5": 406,
      "ĠLIM": 407,
      "Ġ40": 408,
      "ĠLIMIT": 409,
      "ly": 410,
      "en": 411,
      "Ġma": 412,
      "Ġonly": 413,
      "can": 414,
      "wha": 415,
      "what": 416,
      "ro": 417,
      "Ġever": 418,
      "Ġevery": 419,
      "Ġall": 420,
      "ate": 421,
      "11": 422,
      "Ġthat": 423,
      "ach": 424,
      "Ġeach": 425,
      "Ġfro": 426,
      "Ġfrom": 427,
      "Ġha": 428,
      "Ġhave": 429,
      "(*": 430,
      "BY": 431,
      "CO": 432,
      "NT": 433,
      "UNT": 434,
      "pen": 435,
      "shipped": 436,
      "ĠD": 437,
      "ĠBY": 438,
      "ĠCO": 439,
      "Ġshipped": 440,
      "ĠOR": 441,
      "ĠCOUNT": 442,
      "tur": 443,
      "retur": 444,
      "return": 445,
      "al": 446,
      "Ġli": 447,
      "ĠA": 448,
      "show": 449,
      "Ġin": 450,
      "ut": 451,
      "Ġse": 452,
      "Ġg": 453,
      "ce": 454,
      "gi": 455,
      "give": 456,
      "lle": 457,
      "ove": 458,
      "com": 459,
      "Ġbut": 460,
      "Ġas": 461,
      "ir": 462,
      "Ġfir": 463,
      "Ġfirst": 464,
      "Ġare": 465,
      "JO": 466,
      "NER": 467,
      "ĠM": 468,
      "ĠJO": 469,
      "ĠINNER": 470,
      "ĠON": 471,
      "ĠJOIN": 472,
      "in": 473,
      "Ġab": 474,
      "Ġabove": 475,
      "reate": 476,
      "Ġgreate": 477,
      "Ġgreater": 478,
      "list": 479,
      "Ġn": 480,
      "nt": 481,
      "Ġor": 482,
      "Ġd": 483,
      "ple": 484,
      "Ġ50": 485,
      "cance": 486,
      "lled": 487,
      "comple": 488,
      "cancelled": 489,
      "complete": 490,
      "Ġby": 491,
      "qual": 492,
      "Ġequal": 493,
      "Ġequals": 494,
      "Ġover": 495,
      "Ġreturn": 496,
      "Ġof": 497,
      "ore": 498,
      "Ġmore": 499,
      "up": 500,
      "Ġour": 501,
      "'s": 502,
      "DER": 503,
      "GRO": 504,
      "IS": 505,
      "ND": 506,
      "TIN": 507,
      "UP": 508,
      "open": 509,
      "ĠGRO": 510,
      "ESC": 511,
      "Ġopen": 512,
      "(*)": 513,
      "(*),": 514,
      "ĠDIS": 515,
      "ĠDESC": 516,
      "ĠORDER": 517,
      "ĠAND": 518,
      "TINCT": 519,
      "ĠGROUP": 520,
      "ĠDISTINCT": 521,
      "unt": 522,
      "count": 523,
      "mit": 524,
      "Ġlimit": 525,
      "ghe": 526,
      "Ġhi": 527,
      "ghest": 528,
      "Ġhighest": 529,
      "pu": 530,
      "pull": 531,
      "at": 532,
      "ked": 533,
      "rked": 534,
      "Ġmarked": 535,
      "Ġset": 536,
      "er": 537,
      "SU": 538,
      "VG": 539,
      "Ġ2": 540,
      "Ġ6": 541,
      "ĠSU": 542,
      "ĠAVG": 543,
      "ĠMIN": 544,
      "ĠSUM": 545,
      "Ġmat": 546,
      "fi": 547,
      "find": 548,
      "eed": 549,
      "Ġneed": 550,
      "Ġj": 551,
      "Ġup": 552,
      "mon": 553,
      "Ġamon": 554,
      "Ġamong": 555,
      "ated": 556,
      "ust": 557,
      "Ġjust": 558,
      "Ġcount": 559,
      "ar": 560,
      "AX": 561,
      "Ġcancelled": 562,
      "Ġcomplete": 563,
      "ĠMAX": 564,
      "Ġre": 565,
      "ny": 566,
      "'d": 567,
      "ke": 568,
      "Ġlike": 569,
      "ber": 570,
      "umber": 571,
      "Ġnumber": 572,
      "ou": 573,
      "you": 574,
      "Ġpull": 575,
      "Ġyou": 576,
      "ge": 577,
      "hich": 578,
      "ts": 579,
      "Ġits": 580,
      "ĠI": 581,
      "Ġsee": 582,
      "row": 583,
      "Ġrow": 584,
      "Ġrows": 585,
      "chi": 586,
      "ng": 587,
      "us": 588,
      "Ġmatchi": 589,
      "Ġmatching": 590,
      "ing": 591,
      "Ġmany": 592,
      "cr": 593,
      "oss": 594,
      "Ġacr": 595,
      "Ġacross": 596,
      "tal": 597,
      "Ġtotal": 598,
      "Ġl": 599,
      "Ġdi": 600,
      "age": 601,
      "verage": 602,
      "which": 603,
      "Ġdo": 604,
      "Ġ20": 605,
      "Ġ60": 606,
      "ci": 607,
      "oci": 608,
      "soci": 609,
      "Ġassoci": 610,
      "Ġassociated": 611,
      "ache": 612,
      "tt": 613,
      "Ġatt": 614,
      "Ġwan": 615,
      "ached": 616,
      "Ġattached": 617,
      "Ġwant": 618,
      "Ġrel": 619,
      "im": 620,
      "imum": 621,
      "cal": 622,
      "cate": 623,
      "Ġthere": 624,
      "xce": 625,
      "eds": 626,
      "Ġexce": 627,
      "Ġexceeds": 628,
      "malle": 629,
      "Ġsmalle": 630,
      "Ġsmallest": 631,
      "tell": 632,
      "for": 633,
      "?</": 634,
      "ct": 635,
      "ches": 636,
      "Ġmatches": 637,
      "Ġapp": 638,
      "Ġappe": 639,
      "hos": 640,
      "Ġthos": 641,
      "Ġthose": 642,
      "bin": 643,
      "combin": 644,
      "ere": 645,
      "ff": 646,
      "Ġdiff": 647,
      "erent": 648,
      "Ġdifferent": 649,
      "ad": 650,
      "lus": 651,
      "plus": 652,
      "Ġplus": 653,
      "Ġwhi": 654,
      "Ġwhile": 655,
      "Ġmin": 656,
      "ged": 657,
      "rr": 658,
      "Ġarr": 659,
      "anged": 660,
      "Ġarranged": 661,
      "Ġaverage": 662,
      "der": 663,
      "Ġorder": 664,
      "ort": 665,
      "Ġsort": 666,
      "Ġrelated": 667,
      "et": 668,
      "gest": 669,
      "argest": 670,
      "Ġlargest": 671,
      "oin": 672,
      "nk": 673,
      "Ġlink": 674,
      "Ġminimum": 675,
      "cu": 676,
      "late": 677,
      "Ġlist": 678,
      "calcu": 679,
      "calculate": 680,
      "out": 681,
      "Ġwithout": 682,
      "Ġmax": 683,
      "ell": 684,
      "owest": 685,
      "Ġlowest": 686,
      "par": 687,
      "Ġsepar": 688,
      "Ġseparate": 689,
      "Ġrep": 690,
      "licate": 691,
      "Ġdup": 692,
      "Ġduplicate": 693,
      "Ġappear": 694,
      "Ġlimited": 695,
      "gor": 696,
      "Ġcate": 697,
      "gory": 698,
      "Ġcategory": 699,
      "Ġmaximum": 700,
      "ak": 701,
      "bre": 702,
      "iqu": 703,
      "niqu": 704,
      "uniqu": 705,
      "Ġuniqu": 706,
      "own": 707,
      "Ġdown": 708,
      "break": 709,
      "Ġunique": 710,
      "add": 711,
      "stin": 712,
      "Ġdistin": 713,
      "Ġdistinct": 714,
      "es": 715,
      "ical": 716,
      "pical": 717,
      "ypical": 718,
      "Ġtypical": 719,
      "Ġdoes": 720,
      "Ġreturning": 721,
      "average": 722,
      "roup": 723,
      "sum": 724,
      "uch": 725,
      "Ġcombin": 726,
      "Ġmuch": 727,
      "Ġcombined": 728,
      "Ġmean": 729,
      "Ġget": 730,
      "ect": 731,
      "nn": 732,
      "Ġcan": 733,
      "conn": 734,
      "Ġso": 735,
      "connect": 736,
      "fo": 737,
      "shi": 738,
      "ionshi": 739,
      "llow": 740,
      "ationshi": 741,
      "Ġrelationshi": 742,
      "follow": 743,
      "Ġrelationship": 744,
      "ac": 745,
      "br": 746,
      "Ġbac": 747,
      "bring": 748,
      "Ġback": 749,
      "join": 750,
      "combine": 751,
      "een": 752,
      "ween": 753,
      "Ġshow": 754,
      "Ġbet": 755,
      "use": 756,
      "Ġbetween": 757,
      "Ġseparately": 758,
      "cc": 759,
      "ls": 760,
      "Ġels": 761,
      "Ġocc": 762,
      "Ġduplicates": 763,
      "Ġelse": 764,
      "Ġoccur": 765,
      "eat": 766,
      "Ġwell": 767,
      "Ġrepeat": 768,
      "Ġrepeats": 769,
      "Ġhe": 770,
      "Ġseen": 771,
      "adcount": 772,
      "Ġheadcount": 773,
      "Ġhow": 774,
      "Ġtell": 775,
      "Ġlinking": 776,
      "are": 777,
      "all": 778,
      "whe": 779,
      "Ġany": 780,
      "Ġwe": 781,
      "Ġwhich": 782,
      "Ġone": 783,
      "Ġoverall": 784,
      "Ġappeare": 785,
      "where": 786,
      "Ġanywhere": 787,
      "Ġappeared": 788,
      "group": 789,
      "Ġthem": 790,
      "lt": 791,
      "oge": 792,
      "the": 793,
      "Ġus": 794,
      "Ġalt": 795,
      "ogethe": 796,
      "Ġused": 797,
      "Ġaltogethe": 798,
      "Ġaltogether": 799,
      "Ġjoin": 800,
      "Ġjoined": 801,
      "sen": 802,
      "ted": 803,
      "resen": 804,
      "Ġrepresen": 805,
      "Ġrepresented": 806,
      "move": 807,
      "remove": 808,
      "Ġlisting": 809,
      "Ġcounts": 810,
      "Ġgroup": 811,
      "Ġgrouped": 812,
      "vg": 813,
      "Ġavg": 814,
      "Ġsum": 815,
      "ale": 816,
      "Ġsale": 817,
      "Ġsales": 818
    },
    "merges": [
      [
        "c",
        "o"
      ],
      [
        "u",
        "m"
      ],
      [
        "l",
        "um"
      ],
      [
        "co",
        "lum"
      ],
      [
        "colum",
        "n"
      ],
      [
        "Ġ",
        "column"
      ],
      [
        "T",
        "E"
      ],
      [
        "X",
        "T"
      ],
      [
        "Ġ",
        "TE"
      ],
      [
        "ĠTE",
        "XT"
      ],
      [
        "Ġ",
        "t"
      ],
      [
        "l",
        "e"
      ],
      [
        "a",
        "b"
      ],
      [
        "Ġt",
        "ab"
      ],
      [
        "Ġtab",
        "le"
      ],
      [
        "R",
        "E"
      ],
      [
        ">",
        "<"
      ],
      [
        "I",
        "N"
      ],
      [
        "E",
        "R"
      ],
      [
        "Ġ",
        "IN"
      ],
      [
        "<",
        "/"
      ],
      [
        "G",
        "ER"
      ],
      [
        "L",
        "E"
      ],
      [
        "TE",
        "GER"
      ],
      [
        "RE",
        "A"
      ],
      [
        "ĠIN",
        "TEGER"
      ],
      [
        "h",
        "e"
      ],
      [
        "s",
        "t"
      ],
      [
        "o",
        "n"
      ],
      [
        "m",
        "a"
      ],
      [
        "I",
        "M"
      ],
      [
        "q",
        "u"
      ],
      [
        "o",
        "s"
      ],
      [
        "c",
        "he"
      ],
      [
        "e",
        "st"
      ],
      [
        "i",
        "on"
      ],
      [
        ")",
        ";"
      ],
      [
        "A",
        "B"
      ],
      [
        "A",
        "R"
      ],
      [
        "C",
        "REA"
      ],
      [
        "E",
        "Y"
      ],
      [
        "K",
        "EY"
      ],
      [
        "P",
        "R"
      ],
      [
        "T",
        "AB"
      ],
      [
        "q",
        "l"
      ],
      [
        "s",
        "che"
      ],
      [
        "s",
        "ql"
      ],
      [
        "Ġ",
        "("
      ],
      [
        "Ġ",
        "KEY"
      ],
      [
        "Ġ",
        "PR"
      ],
      [
        "Ġ",
        "TAB"
      ],
      [
        "IM",
        "AR"
      ],
      [
        "qu",
        "est"
      ],
      [
        "CREA",
        "TE"
      ],
      [
        "sche",
        "ma"
      ],
      [
        "ĠPR",
        "IMAR"
      ],
      [
        "ĠTAB",
        "LE"
      ],
      [
        "quest",
        "ion"
      ],
      [
        "ĠPRIMAR",
        "Y"
      ],
      [
        "E",
        "RE"
      ],
      [
        "C",
        "T"
      ],
      [
        "E",
        "S"
      ],
      [
        "R",
        "O"
      ],
      [
        ";",
        "</"
      ],
      [
        "C",
        "ES"
      ],
      [
        "E",
        "LE"
      ],
      [
        "F",
        "ERE"
      ],
      [
        "F",
        "RO"
      ],
      [
        "N",
        "CES"
      ],
      [
        "S",
        "ELE"
      ],
      [
        "b",
        "os"
      ],
      [
        "e",
        "os"
      ],
      [
        "Ġ",
        "RE"
      ],
      [
        "Ġ",
        "REA"
      ],
      [
        "Ġ",
        "FRO"
      ],
      [
        ");",
        "</"
      ],
      [
        "FERE",
        "NCES"
      ],
      [
        "SELE",
        "CT"
      ],
      [
        "ĠRE",
        "FERENCES"
      ],
      [
        "ĠREA",
        "L"
      ],
      [
        "ĠFRO",
        "M"
      ],
      [
        "Ġ",
        "a"
      ],
      [
        ")",
        ","
      ],
      [
        "r",
        "e"
      ],
      [
        "Ġ",
        "w"
      ],
      [
        "h",
        "a"
      ],
      [
        "v",
        "e"
      ],
      [
        "1",
        "0"
      ],
      [
        "Ġ",
        "f"
      ],
      [
        "e",
        "d"
      ],
      [
        "Ġt",
        "he"
      ],
      [
        "H",
        "ERE"
      ],
      [
        "W",
        "HERE"
      ],
      [
        "Ġ",
        "WHERE"
      ],
      [
        "n",
        "d"
      ],
      [
        "o",
        "r"
      ],
      [
        "h",
        "i"
      ],
      [
        "Ġa",
        "nd"
      ],
      [
        "Ġ",
        "e"
      ],
      [
        "Ġ",
        "="
      ],
      [
        "Ġw",
        "he"
      ],
      [
        "Ġ",
        ">"
      ],
      [
        "Ġ",
        "m"
      ],
      [
        "Ġ",
        "i"
      ],
      [
        "Ġ",
        "3"
      ],
      [
        "Ġt",
        "ha"
      ],
      [
        "Ġ",
        "s"
      ],
      [
        "Ġf",
        "or"
      ],
      [
        "Ġ",
        "o"
      ],
      [
        "p",
        "p"
      ],
      [
        "Ġ",
        "'"
      ],
      [
        "hi",
        "pp"
      ],
      [
        "hipp",
        "ed"
      ],
      [
        "l",
        "l"
      ],
      [
        "ve",
        "r"
      ],
      [
        "t",
        "e"
      ],
      [
        "Ġ",
        "4"
      ],
      [
        "Ġm",
        "e"
      ],
      [
        "o",
        "w"
      ],
      [
        "i",
        "t"
      ],
      [
        "l",
        "i"
      ],
      [
        "Ġ",
        "O"
      ],
      [
        "Ġ3",
        "0"
      ],
      [
        "u",
        "r"
      ],
      [
        "a",
        "n"
      ],
      [
        "Ġwhe",
        "n"
      ],
      [
        "Ġt",
        "o"
      ],
      [
        "Ġ",
        "b"
      ],
      [
        "'",
        ";</"
      ],
      [
        "c",
        "h"
      ],
      [
        "Ġ",
        "10"
      ],
      [
        "Ġi",
        "s"
      ],
      [
        "Ġ",
        "on"
      ],
      [
        "Ġw",
        "it"
      ],
      [
        "Ġwit",
        "h"
      ],
      [
        ")",
        ");</"
      ],
      [
        "Ġwhe",
        "re"
      ],
      [
        "h",
        "ow"
      ],
      [
        "Ġtha",
        "n"
      ],
      [
        "I",
        "T"
      ],
      [
        "L",
        "IM"
      ],
      [
        "Ġ",
        "5"
      ],
      [
        "Ġ",
        "LIM"
      ],
      [
        "Ġ4",
        "0"
      ],
      [
        "ĠLIM",
        "IT"
      ],
      [
        "l",
        "y"
      ],
      [
        "e",
        "n"
      ],
      [
        "Ġ",
        "ma"
      ],
      [
        "Ġon",
        "ly"
      ],
      [
        "c",
        "an"
      ],
      [
        "w",
        "ha"
      ],
      [
        "wha",
        "t"
      ],
      [
        "r",
        "o"
      ],
      [
        "Ġe",
        "ver"
      ],
      [
        "Ġever",
        "y"
      ],
      [
        "Ġa",
        "ll"
      ],
      [
        "a",
        "te"
      ],
      [
        "1",
        "1"
      ],
      [
        "Ġtha",
        "t"
      ],
      [
        "a",
        "ch"
      ],
      [
        "Ġe",
        "ach"
      ],
      [
        "Ġf",
        "ro"
      ],
      [
        "Ġfro",
        "m"
      ],
      [
        "Ġ",
        "ha"
      ],
      [
        "Ġha",
        "ve"
      ],
      [
        "(",
        "*"
      ],
      [
        "B",
        "Y"
      ],
      [
        "C",
        "O"
      ],
      [
        "N",
        "T"
      ],
      [
        "U",
        "NT"
      ],
      [
        "p",
        "en"
      ],
      [
        "s",
        "hipped"
      ],
      [
        "Ġ",
        "D"
      ],
      [
        "Ġ",
        "BY"
      ],
      [
        "Ġ",
        "CO"
      ],
      [
        "Ġs",
        "hipped"
      ],
      [
        "ĠO",
        "R"
      ],
      [
        "ĠCO",
        "UNT"
      ],
      [
        "t",
        "ur"
      ],
      [
        "re",
        "tur"
      ],
      [
        "retur",
        "n"
      ],
      [
        "a",
        "l"
      ],
      [
        "Ġ",
        "li"
      ],
      [
        "Ġ",
        "A"
      ],
      [
        "s",
        "how"
      ],
      [
        "Ġi",
        "n"
      ],
      [
        "u",
        "t"
      ],
      [
        "Ġs",
        "e"
      ],
      [
        "Ġ",
        "g"
      ],
      [
        "c",
        "e"
      ],
      [
        "g",
        "i"
      ],
      [
        "gi",
        "ve"
      ],
      [
        "l",
        "le"
      ],
      [
        "o",
        "ve"
      ],
      [
        "co",
        "m"
      ],
      [
        "Ġb",
        "ut"
      ],
      [
        "Ġa",
        "s"
      ],
      [
        "i",
        "r"
      ],
      [
        "Ġf",
        "ir"
      ],
      [
        "Ġfir",
        "st"
      ],
      [
        "Ġa",
        "re"
      ],
      [
        "J",
        "O"
      ],
      [
        "N",
        "ER"
      ],
      [
        "Ġ",
        "M"
      ],
      [
        "Ġ",
        "JO"
      ],
      [
        "ĠIN",
        "NER"
      ],
      [
        "ĠO",
        "N"
      ],
      [
        "ĠJO",
        "IN"
      ],
      [
        "i",
        "n"
      ],
      [
        "Ġ",
        "ab"
      ],
      [
        "Ġab",
        "ove"
      ],
      [
        "re",
        "ate"
      ],
      [
        "Ġg",
        "reate"
      ],
      [
        "Ġgreate",
        "r"
      ],
      [
        "li",
        "st"
      ],
      [
        "Ġ",
        "n"
      ],
      [
        "n",
        "t"
      ],
      [
        "Ġ",
        "or"
      ],
      [
        "Ġ",
        "d"
      ],
      [
        "p",
        "le"
      ],
      [
        "Ġ5",
        "0"
      ],
      [
        "can",
        "ce"
      ],
      [
        "lle",
        "d"
      ],
      [
        "com",
        "ple"
      ],
      [
        "cance",
        "lled"
      ],
      [
        "comple",
        "te"
      ],
      [
        "Ġb",
        "y"
      ],
      [
        "qu",
        "al"
      ],
      [
        "Ġe",
        "qual"
      ],
      [
        "Ġequal",
        "s"
      ],
      [
        "Ġo",
        "ver"
      ],
      [
        "Ġ",
        "return"
      ],
      [
        "Ġo",
        "f"
      ],
      [
        "o",
        "re"
      ],
      [
        "Ġm",
        "ore"
      ],
      [
        "u",
        "p"
      ],
      [
        "Ġo",
        "ur"
      ],
      [
        "'",
        "s"
      ],
      [
        "D",
        "ER"
      ],
      [
        "G",
        "RO"
      ],
      [
        "I",
        "S"
      ],
      [
        "N",
        "D"
      ],
      [
        "T",
        "IN"
      ],
      [
        "U",
        "P"
      ],
      [
        "o",
        "pen"
      ],
      [
        "Ġ",
        "GRO"
      ],
      [
        "ES",
        "C"
      ],
      [
        "Ġo",
        "pen"
      ],
      [
        "(*",
        ")"
      ],
      [
        "(*",
        "),"
      ],
      [
        "ĠD",
        "IS"
      ],
      [
        "ĠD",
        "ESC"
      ],
      [
        "ĠOR",
        "DER"
      ],
      [
        "ĠA",
        "ND"
      ],
      [
        "TIN",
        "CT"
      ],
      [
        "ĠGRO",
        "UP"
      ],
      [
        "ĠDIS",
        "TINCT"
      ],
      [
        "u",
        "nt"
      ],
      [
        "co",
        "unt"
      ],
      [
        "m",
        "it"
      ],
      [
        "Ġli",
        "mit"
      ],
      [
        "g",
        "he"
      ],
      [
        "Ġ",
        "hi"
      ],
      [
        "ghe",
        "st"
      ],
      [
        "Ġhi",
        "ghest"
      ],
      [
        "p",
        "u"
      ],
      [
        "pu",
        "ll"
      ],
      [
        "a",
        "t"
      ],
      [
        "k",
        "ed"
      ],
      [
        "r",
        "ked"
      ],
      [
        "Ġma",
        "rked"
      ],
      [
        "Ġse",
        "t"
      ],
      [
        "e",
        "r"
      ],
      [
        "S",
        "U"
      ],
      [
        "V",
        "G"
      ],
      [
        "Ġ",
        "2"
      ],
      [
        "Ġ",
        "6"
      ],
      [
        "Ġ",
        "SU"
      ],
      [
        "ĠA",
        "VG"
      ],
      [
        "ĠM",
        "IN"
      ],
      [
        "ĠSU",
        "M"
      ],
      [
        "Ġma",
        "t"
      ],
      [
        "f",
        "i"
      ],
      [
        "fi",
        "nd"
      ],
      [
        "e",
        "ed"
      ],
      [
        "Ġn",
        "eed"
      ],
      [
        "Ġ",
        "j"
      ],
      [
        "Ġ",
        "up"
      ],
      [
        "m",
        "on"
      ],
      [
        "Ġa",
        "mon"
      ],
      [
        "Ġamon",
        "g"
      ],
      [
        "at",
        "ed"
      ],
      [
        "u",
        "st"
      ],
      [
        "Ġj",
        "ust"
      ],
      [
        "Ġ",
        "count"
      ],
      [
        "a",
        "r"
      ],
      [
        "A",
        "X"
      ],
      [
        "Ġ",
        "cancelled"
      ],
      [
        "Ġ",
        "complete"
      ],
      [
        "ĠM",
        "AX"
      ],
      [
        "Ġ",
        "re"
      ],
      [
        "n",
        "y"
      ],
      [
        "'",
        "d"
      ],
      [
        "k",
        "e"
      ],
      [
        "Ġli",
        "ke"
      ],
      [
        "b",
        "er"
      ],
      [
        "um",
        "ber"
      ],
      [
        "Ġn",
        "umber"
      ],
      [
        "o",
        "u"
      ],
      [
        "y",
        "ou"
      ],
      [
        "Ġ",
        "pull"
      ],
      [
        "Ġ",
        "you"
      ],
      [
        "g",
        "e"
      ],
      [
        "hi",
        "ch"
      ],
      [
        "t",
        "s"
      ],
      [
        "Ġi",
        "ts"
      ],
      [
        "Ġ",
        "I"
      ],
      [
        "Ġse",
        "e"
      ],
      [
        "r",
        "ow"
      ],
      [
        "Ġ",
        "row"
      ],
      [
        "Ġrow",
        "s"
      ],
      [
        "c",
        "hi"
      ],
      [
        "n",
        "g"
      ],
      [
        "u",
        "s"
      ],
      [
        "Ġmat",
        "chi"
      ],
      [
        "Ġmatchi",
        "ng"
      ],
      [
        "in",
        "g"
      ],
      [
        "Ġma",
        "ny"
      ],
      [
        "c",
        "r"
      ],
      [
        "os",
        "s"
      ],
      [
        "Ġa",
        "cr"
      ],
      [
        "Ġacr",
        "oss"
      ],
      [
        "t",
        "al"
      ],
      [
        "Ġto",
        "tal"
      ],
      [
        "Ġ",
        "l"
      ],
      [
        "Ġd",
        "i"
      ],
      [
        "a",
        "ge"
      ],
      [
        "ver",
        "age"
      ],
      [
        "w",
        "hich"
      ],
      [
        "Ġd",
        "o"
      ],
      [
        "Ġ2",
        "0"
      ],
      [
        "Ġ6",
        "0"
      ],
      [
        "c",
        "i"
      ],
      [
        "o",
        "ci"
      ],
      [
        "s",
        "oci"
      ],
      [
        "Ġas",
        "soci"
      ],
      [
        "Ġassoci",
        "ated"
      ],
      [
        "a",
        "che"
      ],
      [
        "t",
        "t"
      ],
      [
        "Ġa",
        "tt"
      ],
      [
        "Ġw",
        "an"
      ],
      [
        "ache",
        "d"
      ],
      [
        "Ġatt",
        "ached"
      ],
      [
        "Ġwan",
        "t"
      ],
      [
        "Ġre",
        "l"
      ],
      [
        "i",
        "m"
      ],
      [
        "im",
        "um"
      ],
      [
        "c",
        "al"
      ],
      [
        "c",
        "ate"
      ],
      [
        "Ġthe",
        "re"
      ],
      [
        "x",
        "ce"
      ],
      [
        "ed",
        "s"
      ],
      [
        "Ġe",
        "xce"
      ],
      [
        "Ġexce",
        "eds"
      ],
      [
        "ma",
        "lle"
      ],
      [
        "Ġs",
        "malle"
      ],
      [
        "Ġsmalle",
        "st"
      ],
      [
        "te",
        "ll"
      ],
      [
        "f",
        "or"
      ],
      [
        "?",
        "</"
      ],
      [
        "c",
        "t"
      ],
      [
        "che",
        "s"
      ],
      [
        "Ġmat",
        "ches"
      ],
      [
        "Ġa",
        "pp"
      ],
      [
        "Ġapp",
        "e"
      ],
      [
        "h",
        "os"
      ],
      [
        "Ġt",
        "hos"
      ],
      [
        "Ġthos",
        "e"
      ],
      [
        "b",
        "in"
      ],
      [
        "com",
        "bin"
      ],
      [
        "e",
        "re"
      ],
      [
        "f",
        "f"
      ],
      [
        "Ġdi",
        "ff"
      ],
      [
        "ere",
        "nt"
      ],
      [
        "Ġdiff",
        "erent"
      ],
      [
        "a",
        "d"
      ],
      [
        "l",
        "us"
      ],
      [
        "p",
        "lus"
      ],
      [
        "Ġ",
        "plus"
      ],
      [
        "Ġw",
        "hi"
      ],
      [
        "Ġwhi",
        "le"
      ],
      [
        "Ġm",
        "in"
      ],
      [
        "g",
        "ed"
      ],
      [
        "r",
        "r"
      ],
      [
        "Ġa",
        "rr"
      ],
      [
        "an",
        "ged"
      ],
      [
        "Ġarr",
        "anged"
      ],
      [
        "Ġa",
        "verage"
      ],
      [
        "d",
        "er"
      ],
      [
        "Ġor",
        "der"
      ],
      [
        "or",
        "t"
      ],
      [
        "Ġs",
        "ort"
      ],
      [
        "Ġrel",
        "ated"
      ],
      [
        "e",
        "t"
      ],
      [
        "g",
        "est"
      ],
      [
        "ar",
        "gest"
      ],
      [
        "Ġl",
        "argest"
      ],
      [
        "o",
        "in"
      ],
      [
        "n",
        "k"
      ],
      [
        "Ġli",
        "nk"
      ],
      [
        "Ġmin",
        "imum"
      ],
      [
        "c",
        "u"
      ],
      [
        "l",
        "ate"
      ],
      [
        "Ġli",
        "st"
      ],
      [
        "cal",
        "cu"
      ],
      [
        "calcu",
        "late"
      ],
      [
        "o",
        "ut"
      ],
      [
        "Ġwith",
        "out"
      ],
      [
        "Ġma",
        "x"
      ],
      [
        "e",
        "ll"
      ],
      [
        "ow",
        "est"
      ],
      [
        "Ġl",
        "owest"
      ],
      [
        "p",
        "ar"
      ],
      [
        "Ġse",
        "par"
      ],
      [
        "Ġsepar",
        "ate"
      ],
      [
        "Ġre",
        "p"
      ],
      [
        "li",
        "cate"
      ],
      [
        "Ġd",
        "up"
      ],
      [
        "Ġdup",
        "licate"
      ],
      [
        "Ġappe",
        "ar"
      ],
      [
        "Ġlimit",
        "ed"
      ],
      [
        "g",
        "or"
      ],
      [
        "Ġ",
        "cate"
      ],
      [
        "gor",
        "y"
      ],
      [
        "Ġcate",
        "gory"
      ],
      [
        "Ġmax",
        "imum"
      ],
      [
        "a",
        "k"
      ],
      [
        "b",
        "re"
      ],
      [
        "i",
        "qu"
      ],
      [
        "n",
        "iqu"
      ],
      [
        "u",
        "niqu"
      ],
      [
        "Ġ",
        "uniqu"
      ],
      [
        "ow",
        "n"
      ],
      [
        "Ġd",
        "own"
      ],
      [
        "bre",
        "ak"
      ],
      [
        "Ġuniqu",
        "e"
      ],
      [
        "ad",
        "d"
      ],
      [
        "st",
        "in"
      ],
      [
        "Ġdi",
        "stin"
      ],
      [
        "Ġdistin",
        "ct"
      ],
      [
        "e",
        "s"
      ],
      [
        "i",
        "cal"
      ],
      [
        "p",
        "ical"
      ],
      [
        "y",
        "pical"
      ],
      [
        "Ġt",
        "ypical"
      ],
      [
        "Ġdo",
        "es"
      ],
      [
        "Ġreturn",
        "ing"
      ],
      [
        "a",
        "verage"
      ],
      [
        "ro",
        "up"
      ],
      [
        "s",
        "um"
      ],
      [
        "u",
        "ch"
      ],
      [
        "Ġ",
        "combin"
      ],
      [
        "Ġm",
        "uch"
      ],
      [
        "Ġcombin",
        "ed"
      ],
      [
        "Ġme",
        "an"
      ],
      [
        "Ġg",
        "et"
      ],
      [
        "e",
        "ct"
      ],
      [
        "n",
        "n"
      ],
      [
        "Ġ",
        "can"
      ],
      [
        "co",
        "nn"
      ],
      [
        "Ġs",
        "o"
      ],
      [
        "conn",
        "ect"
      ],
      [
        "f",
        "o"
      ],
      [
        "s",
        "hi"
      ],
      [
        "ion",
        "shi"
      ],
      [
        "ll",
        "ow"
      ],
      [
        "at",
        "ionshi"
      ],
      [
        "Ġrel",
        "ationshi"
      ],
      [
        "fo",
        "llow"
      ],
      [
        "Ġrelationshi",
        "p"
      ],
      [
        "a",
        "c"
      ],
      [
        "b",
        "r"
      ],
      [
        "Ġb",
        "ac"
      ],
      [
        "br",
        "ing"
      ],
      [
        "Ġbac",
        "k"
      ],
      [
        "j",
        "oin"
      ],
      [
        "combin",
        "e"
      ],
      [
        "e",
        "en"
      ],
      [
        "w",
        "een"
      ],
      [
        "Ġs",
        "how"
      ],
      [
        "Ġb",
        "et"
      ],
      [
        "us",
        "e"
      ],
      [
        "Ġbet",
        "ween"
      ],
      [
        "Ġseparate",
        "ly"
      ],
      [
        "c",
        "c"
      ],
      [
        "l",
        "s"
      ],
      [
        "Ġe",
        "ls"
      ],
      [
        "Ġo",
        "cc"
      ],
      [
        "Ġduplicate",
        "s"
      ],
      [
        "Ġels",
        "e"
      ],
      [
        "Ġocc",
        "ur"
      ],
      [
        "e",
        "at"
      ],
      [
        "Ġw",
        "ell"
      ],
      [
        "Ġrep",
        "eat"
      ],
      [
        "Ġrepeat",
        "s"
      ],
      [
        "Ġ",
        "he"
      ],
      [
        "Ġse",
        "en"
      ],
      [
        "ad",
        "count"
      ],
      [
        "Ġhe",
        "adcount"
      ],
      [
        "Ġ",
        "how"
      ],
      [
        "Ġt",
        "ell"
      ],
      [
        "Ġlink",
        "ing"
      ],
      [
        "a",
        "re"
      ],
      [
        "a",
        "ll"
      ],
      [
        "w",
        "he"
      ],
      [
        "Ġa",
        "ny"
      ],
      [
        "Ġw",
        "e"
      ],
      [
        "Ġw",
        "hich"
      ],
      [
        "Ġon",
        "e"
      ],
      [
        "Ġover",
        "all"
      ],
      [
        "Ġappe",
        "are"
      ],
      [
        "whe",
        "re"
      ],
      [
        "Ġany",
        "where"
      ],
      [
        "Ġappeare",
        "d"
      ],
      [
        "g",
        "roup"
      ],
      [
        "Ġthe",
        "m"
      ],
      [
        "l",
        "t"
      ],
      [
        "o",
        "ge"
      ],
      [
        "t",
        "he"
      ],
      [
        "Ġ",
        "us"
      ],
      [
        "Ġa",
        "lt"
      ],
      [
        "oge",
        "the"
      ],
      [
        "Ġus",
        "ed"
      ],
      [
        "Ġalt",
        "ogethe"
      ],
      [
        "Ġaltogethe",
        "r"
      ],
      [
        "Ġj",
        "oin"
      ],
      [
        "Ġjoin",
        "ed"
      ],
      [
        "s",
        "en"
      ],
      [
        "t",
        "ed"
      ],
      [
        "re",
        "sen"
      ],
      [
        "Ġrep",
        "resen"
      ],
      [
        "Ġrepresen",
        "ted"
      ],
      [
        "m",
        "ove"
      ],
      [
        "re",
        "move"
      ],
      [
        "Ġlist",
        "ing"
      ],
      [
        "Ġcount",
        "s"
      ],
      [
        "Ġg",
        "roup"
      ],
      [
        "Ġgroup",
        "ed"
      ],
      [
        "v",
        "g"
      ],
      [
        "Ġa",
        "vg"
      ],
      [
        "Ġs",
        "um"
      ],
      [
        "a",
        "le"
      ],
      [
        "Ġs",
        "ale"
      ],
      [
        "Ġsale",
        "s"
      ]
    ]
  }
}